{
  "version": "1.0",
  "truncation": null,
  "padding": null,
  "added_tokens": [
    {
      "id": 0,
      "content": "[PAD]",
      "single_word": false,
      "lstrip": false,
      "rstrip": false,
      "normalized": false,
      "special": true
    },
    {
      "id": 1,
      "content": "[UNK]",
      "single_word": false,
      "lstrip": false,
      "rstrip": false,
      "normalized": false,
      "special": true
    },
    {
      "id": 2,
      "content": "[SOS]",
      "single_word": false,
      "lstrip": false,
      "rstrip": false,
      "normalized": false,
      "special": true
    },
    {
      "id": 3,
      "content": "[EOS]",
      "single_word": false,
      "lstrip": false,
      "rstrip": false,
      "normalized": false,
      "special": true
    }
  ],
  "normalizer": null,
  "pre_tokenizer": {
    "type": "ByteLevel",
    "add_prefix_space": true,
    "trim_offsets": true,
    "use_regex": true
  },
  "post_processor": {
    "type": "ByteLevel",
    "add_prefix_space": true,
    "trim_offsets": true,
    "use_regex": true
  },
  "decoder": {
    "type": "ByteLevel",
    "add_prefix_space": true,
    "trim_offsets": true,
    "use_regex": true
  },
  "model": {
    "type": "BPE",
    "dropout": null,
    "unk_token": null,
    "continuing_subword_prefix": null,
    "end_of_word_suffix": null,
    "fuse_unk": false,
    "byte_fallback": false,
    "ignore_merges": false,
    "vocab": {
      "[PAD]": 0,
      "[UNK]": 1,
      "[SOS]": 2,
      "[EOS]": 3,
      "!": 4,
      "\"": 5,
      "#": 6,
      "$": 7,
      "%": 8,
      "&": 9,
      "'": 10,
      "(": 11,
      ")": 12,
      "+": 13,
      ",": 14,
      "-": 15,
      ".": 16,
      "/": 17,
      "0": 18,
      "1": 19,
      "2": 20,
      "3": 21,
      "4": 22,
      "5": 23,
      "6": 24,
      "7": 25,
      "8": 26,
      "9": 27,
      ":": 28,
      ";": 29,
      "=": 30,
      ">": 31,
      "?": 32,
      "@": 33,
      "A": 34,
      "B": 35,
      "C": 36,
      "D": 37,
      "E": 38,
      "F": 39,
      "G": 40,
      "H": 41,
      "I": 42,
      "J": 43,
      "K": 44,
      "L": 45,
      "M": 46,
      "N": 47,
      "O": 48,
      "P": 49,
      "Q": 50,
      "R": 51,
      "S": 52,
      "T": 53,
      "U": 54,
      "V": 55,
      "W": 56,
      "Y": 57,
      "Z": 58,
      "a": 59,
      "b": 60,
      "c": 61,
      "d": 62,
      "e": 63,
      "f": 64,
      "g": 65,
      "h": 66,
      "i": 67,
      "j": 68,
      "k": 69,
      "l": 70,
      "m": 71,
      "n": 72,
      "o": 73,
      "p": 74,
      "q": 75,
      "r": 76,
      "s": 77,
      "t": 78,
      "u": 79,
      "v": 80,
      "w": 81,
      "x": 82,
      "y": 83,
      "z": 84,
      "¡": 85,
      "¢": 86,
      "£": 87,
      "§": 88,
      "¨": 89,
      "©": 90,
      "ª": 91,
      "¬": 92,
      "®": 93,
      "¯": 94,
      "°": 95,
      "±": 96,
      "²": 97,
      "³": 98,
      "´": 99,
      "·": 100,
      "¹": 101,
      "º": 102,
      "Â": 103,
      "Ã": 104,
      "Ø": 105,
      "Ù": 106,
      "â": 107,
      "Ċ": 108,
      "Ġ": 109,
      "Ģ": 110,
      "ģ": 111,
      "Ĥ": 112,
      "ĥ": 113,
      "Ħ": 114,
      "ħ": 115,
      "Ĩ": 116,
      "ĩ": 117,
      "Ī": 118,
      "ī": 119,
      "Ĭ": 120,
      "Į": 121,
      "ĵ": 122,
      "Ķ": 123,
      "Ĺ": 124,
      "Ł": 125,
      "Ń": 126,
      "Ġa": 127,
      "in": 128,
      "re": 129,
      "Ġs": 130,
      "Ġt": 131,
      "or": 132,
      "ou": 133,
      "Ġf": 134,
      "er": 135,
      "Ġc": 136,
      "at": 137,
      "on": 138,
      "it": 139,
      "es": 140,
      "le": 141,
      "Ġw": 142,
      "Ġp": 143,
      "an": 144,
      "he": 145,
      "ing": 146,
      "Ġd": 147,
      "nd": 148,
      "ur": 149,
      "you": 150,
      "Ġm": 151,
      "al": 152,
      "Ġyou": 153,
      "ion": 154,
      "om": 155,
      "Ġb": 156,
      "en": 157,
      "ed": 158,
      "ar": 159,
      "st": 160,
      "ure": 161,
      "li": 162,
      "ro": 163,
      "Ġto": 164,
      "ĠI": 165,
      "Ġand": 166,
      "ct": 167,
      "Ġfor": 168,
      "ic": 169,
      "Ġthe": 170,
      "urn": 171,
      "ĠW": 172,
      "Ġo": 173,
      "Ġin": 174,
      "Ġfurn": 175,
      "iture": 176,
      "ac": 177,
      "ab": 178,
      "Ġfurniture": 179,
      "Ġre": 180,
      "ith": 181,
      "et": 182,
      "Ġwith": 183,
      "ol": 184,
      "is": 185,
      "Ġh": 186,
      "Ġst": 187,
      "hat": 188,
      "ent": 189,
      "ly": 190,
      "Ġli": 191,
      "se": 192,
      "oo": 193,
      "Ġn": 194,
      "ge": 195,
      "Ġse": 196,
      "Ġe": 197,
      "ld": 198,
      "ve": 199,
      "ke": 200,
      "our": 201,
      "ions": 202,
      "Ġof": 203,
      "ec": 204,
      "ĠC": 205,
      "Ġor": 206,
      "ow": 207,
      "ĠF": 208,
      "ĠT": 209,
      "Ġyour": 210,
      "able": 211,
      "as": 212,
      "ll": 213,
      "ig": 214,
      "ver": 215,
      "Ġsp": 216,
      "ould": 217,
      "Ġ1": 218,
      "Ġl": 219,
      "id": 220,
      "Ġ2": 221,
      "Ġour": 222,
      "Ġ3": 223,
      "ction": 224,
      "Ġpro": 225,
      "Ġcol": 226,
      "ĠĠ": 227,
      "Ġlike": 228,
      "ment": 229,
      "Ġu": 230,
      "ai": 231,
      "pp": 232,
      "Ġcan": 233,
      "Ġ'": 234,
      "Ġch": 235,
      "am": 236,
      "if": 237,
      "pt": 238,
      "ay": 239,
      "Ġg": 240,
      "ud": 241,
      "ĠA": 242,
      "ĠO": 243,
      "age": 244,
      "ate": 245,
      "ace": 246,
      "'s": 247,
      "Ġhe": 248,
      "ch": 249,
      "Ġne": 250,
      "im": 251,
      "ĠFor": 252,
      "te": 253,
      "Ġmo": 254,
      "Ġdo": 255,
      "ht": 256,
      "Ġth": 257,
      "fe": 258,
      "ul": 259,
      "ut": 260,
      "ĠS": 261,
      "Ġcom": 262,
      "room": 263,
      "ĠH": 264,
      "Ġthat": 265,
      "ce": 266,
      "Ġde": 267,
      "cl": 268,
      "ĠWould": 269,
      "Ġcon": 270,
      "ial": 271,
      "ĠE": 272,
      "ort": 273,
      "est": 274,
      "ad": 275,
      "ain": 276,
      "nt": 277,
      "ĠWhat": 278,
      "ĠOur": 279,
      "ers": 280,
      "of": 281,
      "art": 282,
      "ust": 283,
      "ess": 284,
      "end": 285,
      "Ġcolle": 286,
      "Ġwe": 287,
      "clud": 288,
      "ot": 289,
      "Ġare": 290,
      "ation": 291,
      "Ġoff": 292,
      "Ġon": 293,
      "Ġit": 294,
      "ĠWe": 295,
      "em": 296,
      "Ġ(": 297,
      "Ġ4": 298,
      "Ġis": 299,
      "ant": 300,
      "Ġneed": 301,
      "Ġmat": 302,
      "iz": 303,
      "very": 304,
      "Ġr": 305,
      "Ġroom": 306,
      "ĠY": 307,
      "Ġcollection": 308,
      "Ġdes": 309,
      "ist": 310,
      "res": 311,
      "Ġpi": 312,
      "Ġex": 313,
      "out": 314,
      "ĠHow": 315,
      "ri": 316,
      "ave": 317,
      "Ġinclud": 318,
      "air": 319,
      "Ġme": 320,
      "all": 321,
      "Ġpiec": 322,
      "and": 323,
      "lp": 324,
      "ity": 325,
      "Ġfe": 326,
      "Ġhelp": 327,
      "der": 328,
      "ice": 329,
      "Ġopt": 330,
      "Ġan": 331,
      "ight": 332,
      "ap": 333,
      "Ġfr": 334,
      "ook": 335,
      "Ġle": 336,
      "ome": 337,
      "ood": 338,
      "Ġpieces": 339,
      "ĠP": 340,
      "Ġdeli": 341,
      "Ġv": 342,
      "'m": 343,
      "us": 344,
      "ack": 345,
      "Ġhave": 346,
      "Ġbe": 347,
      "Ġsu": 348,
      "Ġspace": 349,
      "Ġoptions": 350,
      "Ġsh": 351,
      "Ġspec": 352,
      "ĠĠĊ": 353,
      "ĠL": 354,
      "lean": 355,
      "orage": 356,
      "pl": 357,
      "ving": 358,
      "ign": 359,
      "Ġdelivery": 360,
      "her": 361,
      "ĠD": 362,
      "Ġsof": 363,
      "qu": 364,
      "Ġapp": 365,
      "ive": 366,
      "ide": 367,
      "il": 368,
      "Ġpo": 369,
      "Ġsee": 370,
      "Ġdesign": 371,
      "ir": 372,
      "ating": 373,
      "Ġrec": 374,
      "ĠU": 375,
      "Ġar": 376,
      "Ġstorage": 377,
      "Ġoffer": 378,
      "Ġtr": 379,
      "ĠM": 380,
      "ĠR": 381,
      "Ġbed": 382,
      "Ġfrom": 383,
      "Ġitem": 384,
      "Ġbest": 385,
      "ard": 386,
      "cc": 387,
      "ange": 388,
      "oose": 389,
      "Ġcolor": 390,
      "ple": 391,
      "Ġfin": 392,
      "Ġcre": 393,
      "ature": 394,
      "ep": 395,
      "Ġad": 396,
      "ional": 397,
      "Ġchair": 398,
      "Ġat": 399,
      "Ġser": 400,
      "omm": 401,
      "ls": 402,
      "Ġpr": 403,
      "les": 404,
      "erial": 405,
      "ular": 406,
      "99": 407,
      "Ġmy": 408,
      "Ġpre": 409,
      "Ġmaterial": 410,
      "oor": 411,
      "Ġsty": 412,
      "Ġas": 413,
      "are": 414,
      "ĠThe": 415,
      "um": 416,
      "Ġfeature": 417,
      "Ġ5": 418,
      "Ġrecomm": 419,
      "Ġrecommend": 420,
      "00": 421,
      "ble": 422,
      "fort": 423,
      "ific": 424,
      "ter": 425,
      "Ġclean": 426,
      "ize": 427,
      "ork": 428,
      "Ġserv": 429,
      "âĢ": 430,
      "Ġte": 431,
      "Ġper": 432,
      "fect": 433,
      "Ġincludes": 434,
      "Ġab": 435,
      "Ġco": 436,
      "ress": 437,
      "Ġpl": 438,
      "th": 439,
      "ile": 440,
      "ining": 441,
      "Ġwork": 442,
      "Ġprote": 443,
      "Ġmaterials": 444,
      "ght": 445,
      "Ġwood": 446,
      "Ġabout": 447,
      "ĠUse": 448,
      "per": 449,
      "ather": 450,
      "ĠYes": 451,
      "Ġitems": 452,
      "ens": 453,
      "ices": 454,
      "gy": 455,
      "ian": 456,
      "Ġlook": 457,
      "Ġk": 458,
      "act": 459,
      "olut": 460,
      "fere": 461,
      "Ġcreate": 462,
      "âĢ¢": 463,
      "gh": 464,
      "Ġacc": 465,
      "ough": 466,
      "ck": 467,
      "ric": 468,
      "Ġ$": 469,
      "Ġthis": 470,
      "ra": 471,
      "ish": 472,
      "ments": 473,
      "Ġtable": 474,
      "pport": 475,
      "Ġspecific": 476,
      "ore": 477,
      "ĠTh": 478,
      "Ġup": 479,
      "Ġseating": 480,
      "os": 481,
      "Ġsolut": 482,
      "Ġdis": 483,
      "Ġdining": 484,
      "Ġsofa": 485,
      "ag": 486,
      "Ġorder": 487,
      "'ll": 488,
      "ase": 489,
      "Ġwh": 490,
      "Ġsupport": 491,
      "wap": 492,
      "Ġset": 493,
      "ount": 494,
      "Ġstart": 495,
      "ĠFurn": 496,
      "ĠYou": 497,
      "gypt": 498,
      "ance": 499,
      "Ġhome": 500,
      "ail": 501,
      "Ġqu": 502,
      "Ġcomfort": 503,
      "Ġsolutions": 504,
      "Ġus": 505,
      "ĠEgypt": 506,
      "Ġ($": 507,
      "just": 508,
      "Ġif": 509,
      "riend": 510,
      "reat": 511,
      "ally": 512,
      "red": 513,
      "Ġsm": 514,
      "Ġdur": 515,
      "Ġbro": 516,
      "ches": 517,
      "'re": 518,
      "ast": 519,
      "itional": 520,
      "ĠTo": 521,
      "Ġchairs": 522,
      "for": 523,
      "ables": 524,
      "Ġprotect": 525,
      "Swap": 526,
      "iSwap": 527,
      "ine": 528,
      "vers": 529,
      "istant": 530,
      "place": 531,
      "Ġstyle": 532,
      "Ġfeatures": 533,
      "ĠFurniSwap": 534,
      "ill": 535,
      "ound": 536,
      "ans": 537,
      "Ġund": 538,
      "Ġchoose": 539,
      "oc": 540,
      "ry": 541,
      "abric": 542,
      "Ġlight": 543,
      "Ġsc": 544,
      "Ġuse": 545,
      "ies": 546,
      "Ġway": 547,
      "Ġdif": 548,
      "aces": 549,
      "Ġany": 550,
      "riendly": 551,
      "door": 552,
      "un": 553,
      "Ġfabric": 554,
      "hen": 555,
      "ĠCon": 556,
      "ustom": 557,
      "resistant": 558,
      "ĠEgyptian": 559,
      "Ġunder": 560,
      "ue": 561,
      "Ġall": 562,
      "Ġspecial": 563,
      "ible": 564,
      "sid": 565,
      "Ġdiffere": 566,
      "ak": 567,
      "Ġtables": 568,
      "Ġfi": 569,
      "ations": 570,
      "heck": 571,
      "Ġbu": 572,
      "Ġliving": 573,
      "dern": 574,
      "Ġadd": 575,
      "Ġcolors": 576,
      "),": 577,
      "Ġso": 578,
      "Ġwould": 579,
      "ach": 580,
      "Ġperfect": 581,
      "sider": 582,
      "friendly": 583,
      "range": 584,
      "ary": 585,
      "ĠĠĊĠĠ": 586,
      "gr": 587,
      "ese": 588,
      "lso": 589,
      "ken": 590,
      "ĠDo": 591,
      "ĠB": 592,
      "ĠCh": 593,
      "pe": 594,
      "int": 595,
      "ree": 596,
      "ings": 597,
      "ime": 598,
      "du": 599,
      "fer": 600,
      "Ġcustom": 601,
      "ĠIn": 602,
      "ult": 603,
      "av": 604,
      "ake": 605,
      "tain": 606,
      "ctional": 607,
      "oth": 608,
      "Ġsmall": 609,
      "Ġbroken": 610,
      "ĠG": 611,
      "Ġout": 612,
      "Ġap": 613,
      "stand": 614,
      "rough": 615,
      "Ġdam": 616,
      "Ġmet": 617,
      "Ġbut": 618,
      "Ġref": 619,
      "Ġthrough": 620,
      "Ġfind": 621,
      "od": 622,
      "lect": 623,
      "hel": 624,
      "asy": 625,
      "Ġarrange": 626,
      "Ġsome": 627,
      "Ġpart": 628,
      "Ġmore": 629,
      "ĠSt": 630,
      "Ġservices": 631,
      "way": 632,
      "ĠâĢ¢": 633,
      "Ġres": 634,
      "Ġcomple": 635,
      "'t": 636,
      "ie": 637,
      "Ġim": 638,
      "ĠAd": 639,
      "Ġcomp": 640,
      "ĠLet": 641,
      "ite": 642,
      "Ġdesigns": 643,
      "ug": 644,
      "Ġwar": 645,
      "Ġbet": 646,
      "Ġty": 647,
      "Ġcl": 648,
      "Ġback": 649,
      "ich": 650,
      "Ġused": 651,
      "Ġdifferent": 652,
      "Ġen": 653,
      "Ġman": 654,
      "ass": 655,
      "ility": 656,
      "Ġprice": 657,
      "form": 658,
      "Ġarea": 659,
      "ĠChoose": 660,
      "de": 661,
      "ong": 662,
      "edi": 663,
      "ick": 664,
      "Ġservice": 665,
      "ily": 666,
      "ual": 667,
      "row": 668,
      "ĠRe": 669,
      "Ġfinish": 670,
      "gular": 671,
      "Ġsa": 672,
      "Ġph": 673,
      "ctions": 674,
      "Ġproper": 675,
      "Ġmost": 676,
      "Ġteam": 677,
      "Ġdisc": 678,
      "vail": 679,
      "Ġfl": 680,
      "Ġwhat": 681,
      "Ġpay": 682,
      "get": 683,
      "Ġtime": 684,
      "Ġcheck": 685,
      "Ġbl": 686,
      "Ġrep": 687,
      "Ġprov": 688,
      "Ġgu": 689,
      "Ġnew": 690,
      "Ġcont": 691,
      "Ġsofas": 692,
      "vailable": 693,
      "ss": 694,
      "und": 695,
      "Ġmain": 696,
      "Ġinches": 697,
      "Ġhand": 698,
      "Ġheight": 699,
      "ized": 700,
      "Ġright": 701,
      "ural": 702,
      "sem": 703,
      "Ġprefer": 704,
      "Ġlooking": 705,
      "ĠThis": 706,
      "Ġstarting": 707,
      "een": 708,
      "Ġdet": 709,
      "Ġby": 710,
      "Ġret": 711,
      "Ġmodern": 712,
      "Ġunderstand": 713,
      "iew": 714,
      "ip": 715,
      "Ġshel": 716,
      "ater": 717,
      "ition": 718,
      "rop": 719,
      "ĠCan": 720,
      "Ġprof": 721,
      "justable": 722,
      "ild": 723,
      "sh": 724,
      "Ġsle": 725,
      "ated": 726,
      "Ġinst": 727,
      "GP": 728,
      "to": 729,
      "ves": 730,
      "Ġalso": 731,
      "lear": 732,
      "Ġwant": 733,
      "Ġpet": 734,
      "Ġmin": 735,
      "ĠCould": 736,
      "ĠEGP": 737,
      "ade": 738,
      "aditional": 739,
      "Ġrug": 740,
      "Ġincluding": 741,
      "Ġfix": 742,
      "Ġdamage": 743,
      "Ġphot": 744,
      "Ġwill": 745,
      "Ġnot": 746,
      "Ġmatch": 747,
      "Ġinclude": 748,
      "ĠPro": 749,
      "ush": 750,
      "tress": 751,
      "ven": 752,
      "Ġ6": 753,
      "ĠN": 754,
      "ĠV": 755,
      "Ġavailable": 756,
      "led": 757,
      "Ġpur": 758,
      "Ġone": 759,
      "Ġdesk": 760,
      "Ġdesigned": 761,
      "ru": 762,
      "rant": 763,
      "ous": 764,
      "Ġwall": 765,
      "Ġstud": 766,
      "ĠCom": 767,
      "Ġprodu": 768,
      "Ġdoor": 769,
      "Ġleather": 770,
      "ĠConsider": 771,
      "Ġhandle": 772,
      "bly": 773,
      "ging": 774,
      "Ġpack": 775,
      "Ġneeds": 776,
      "Ġmattress": 777,
      "Ġshow": 778,
      "Ġbedroom": 779,
      "Ġrefund": 780,
      "Ġcomplete": 781,
      "Ġpayment": 782,
      "Ġsize": 783,
      "Ġspaces": 784,
      "Ġlong": 785,
      "Ġrooms": 786,
      "Ġcovers": 787,
      "Ġcomfortable": 788,
      "Ġoutdoor": 789,
      "'d": 790,
      "ber": 791,
      "ear": 792,
      "ading": 793,
      "Ġleg": 794,
      "Ġbeds": 795,
      "Ġaccess": 796,
      "Ġlighting": 797,
      "Ġwarrant": 798,
      "up": 799,
      "Ġ8": 800,
      "Ġstain": 801,
      "asure": 802,
      "cel": 803,
      "ax": 804,
      "bs": 805,
      "cy": 806,
      "day": 807,
      "ful": 808,
      "og": 809,
      "ality": 810,
      "omet": 811,
      "Ġstand": 812,
      "igh": 813,
      "Ġoffers": 814,
      "Ġfee": 815,
      "Ġpoli": 816,
      "irst": 817,
      "Ġassem": 818,
      "Ġfabrics": 819,
      "Ġrepair": 820,
      "Ġdetai": 821,
      "Ġreturn": 822,
      "Ġsleep": 823,
      "ire": 824,
      "Ġmult": 825,
      "abin": 826,
      "Ġhas": 827,
      "Ġlar": 828,
      "Ġgood": 829,
      "udget": 830,
      "fee": 831,
      "offee": 832,
      "ĠLook": 833,
      "Ġworks": 834,
      "Ġapart": 835,
      "Ġpurch": 836,
      "Ġproduct": 837,
      "cess": 838,
      "io": 839,
      "now": 840,
      "Ġtreat": 841,
      "Ġcabin": 842,
      "lex": 843,
      "Ġreplace": 844,
      "Ġeasy": 845,
      "amily": 846,
      "essional": 847,
      "rior": 848,
      "raw": 849,
      "unctional": 850,
      "ding": 851,
      "xt": 852,
      "Ġfoc": 853,
      "Ġbudget": 854,
      "ical": 855,
      "Ġchar": 856,
      "Ġexpl": 857,
      "Ġvis": 858,
      "Ġpoint": 859,
      "Ġdurable": 860,
      "ne": 861,
      "ove": 862,
      "ts": 863,
      "Ġ-": 864,
      "ind": 865,
      "Ġsy": 866,
      "Ġclear": 867,
      "Ġele": 868,
      "tend": 869,
      "ious": 870,
      "pular": 871,
      "ull": 872,
      "Ġsur": 873,
      "orn": 874,
      "atural": 875,
      "Ġboth": 876,
      "Ġget": 877,
      "Ġthese": 878,
      "Ġcons": 879,
      "Ġwell": 880,
      "Ġtraditional": 881,
      "Ġknow": 882,
      "Ġwhile": 883,
      "Ġmetal": 884,
      "Ġfinishes": 885,
      "app": 886,
      "ders": 887,
      "iving": 888,
      "ost": 889,
      "ting": 890,
      "vo": 891,
      "reen": 892,
      "rest": 893,
      "Ġsomet": 894,
      "atch": 895,
      "Ġot": 896,
      "pply": 897,
      "ame": 898,
      "Ġbuy": 899,
      "Ġcabinet": 900,
      "hol": 901,
      "Ġsli": 902,
      "Ġdraw": 903,
      "ĠWh": 904,
      "ents": 905,
      "Ġsell": 906,
      "Ġem": 907,
      "Ġgo": 908,
      "ady": 909,
      "Ġmeasure": 910,
      "Ġstyles": 911,
      "ages": 912,
      "Ġwhich": 913,
      "Ġprotective": 914,
      "Ġdiscount": 915,
      "Ġassembly": 916,
      "Ġsurf": 917,
      "Ġaf": 918,
      "Ġag": 919,
      "Ġal": 920,
      "ery": 921,
      "Ġcare": 922,
      "lease": 923,
      "Ġwas": 924,
      "Ġpe": 925,
      "here": 926,
      "Ġday": 927,
      "Ġregular": 928,
      "Ġhigh": 929,
      "vert": 930,
      "ĠApply": 931,
      "ately": 932,
      "Ġext": 933,
      "Ġshare": 934,
      "Ġapprop": 935,
      "Ġcleaner": 936,
      "Ġappropri": 937,
      "gan": 938,
      "hing": 939,
      "ien": 940,
      "ory": 941,
      "onth": 942,
      "Ġwhen": 943,
      "arch": 944,
      "Ġseat": 945,
      "Ġgl": 946,
      "Ġgr": 947,
      "Ġmode": 948,
      "ĠSe": 949,
      "Ġcomm": 950,
      "clude": 951,
      "Ġareas": 952,
      "Ġneeded": 953,
      "ĠPer": 954,
      "Ġtrans": 955,
      "Ġkit": 956,
      "Ġcustomer": 957,
      "ĠInclude": 958,
      "Ġimm": 959,
      "Ġtyp": 960,
      "Ġfloor": 961,
      "Ġprofessional": 962,
      "ween": 963,
      "Ġcush": 964,
      "Ġcoffee": 965,
      "ank": 966,
      "Ġdim": 967,
      "Ġbook": 968,
      "Ġsection": 969,
      "Ġsearch": 970,
      "Ġprocess": 971,
      "Ġass": 972,
      "000": 973,
      "ĠAdd": 974,
      "Ġbetween": 975,
      "Ġprovide": 976,
      "Ġappropriate": 977,
      "ek": 978,
      "ns": 979,
      "Ġbr": 980,
      "ĠIt": 981,
      "Ġnatural": 982,
      "Ġsever": 983,
      "ĠEx": 984,
      "Ġprev": 985,
      "ensions": 986,
      "Ġguide": 987,
      "Ġwarranty": 988,
      "Ġsurfaces": 989,
      "Ġimmedi": 990,
      "Ġdimensions": 991,
      "Ġseveral": 992,
      ").": 993,
      "co": 994,
      "fore": 995,
      "ms": 996,
      "Ø§": 997,
      "Ġent": 998,
      "Ġke": 999,
      "Ġpat": 1000,
      "Ġmake": 1001,
      "Ġrem": 1002,
      "Ġrent": 1003,
      "Ġnow": 1004,
      "Ġevery": 1005,
      "ĠClean": 1006,
      "ĠThat": 1007,
      "Ġoffice": 1008,
      "Ġrange": 1009,
      "Ġexper": 1010,
      "Ġextend": 1011,
      "ilt": 1012,
      "Ġpopular": 1013,
      "Ġadditional": 1014,
      "Ġblue": 1015,
      "Ġcontact": 1016,
      "Ġmaintain": 1017,
      "Ġphotos": 1018,
      "Ġpurchase": 1019,
      "holst": 1020,
      "ered": 1021,
      "ib": 1022,
      "ium": 1023,
      "mium": 1024,
      "tom": 1025,
      "Ġac": 1026,
      "orry": 1027,
      "erg": 1028,
      "Ġcur": 1029,
      "ability": 1030,
      "Ġlist": 1031,
      "imal": 1032,
      "Ġbefore": 1033,
      "Ġtell": 1034,
      "Ġduring": 1035,
      "Ġparts": 1036,
      "ways": 1037,
      "Ġsomething": 1038,
      "Ġagain": 1039,
      "Ġregularly": 1040,
      "ĠPerfect": 1041,
      "aving": 1042,
      "ff": 1043,
      "ople": 1044,
      "year": 1045,
      "Ġtake": 1046,
      "stem": 1047,
      "lid": 1048,
      "Ġwithin": 1049,
      "ential": 1050,
      "Ġthan": 1051,
      "Ġcond": 1052,
      "Ġconf": 1053,
      "Ġconsider": 1054,
      "Ġsun": 1055,
      "Ġquality": 1056,
      "Ġbetter": 1057,
      "Ġmulti": 1058,
      "Ġreplacement": 1059,
      "Ġpeople": 1060,
      "500": 1061,
      "con": 1062,
      "nce": 1063,
      "pace": 1064,
      "Ġsorry": 1065,
      "Ġfree": 1066,
      "Ġbar": 1067,
      "Ġover": 1068,
      "pping": 1069,
      "ĠYour": 1070,
      "Ġview": 1071,
      "Ġadjustable": 1072,
      "Ġprotection": 1073,
      "Ġupholst": 1074,
      "Ġscr": 1075,
      "gram": 1076,
      "Ġpolicy": 1077,
      "Ġdetails": 1078,
      "ience": 1079,
      "Ġimmediately": 1080,
      "Ġagainst": 1081,
      "12": 1082,
      "ces": 1083,
      "hable": 1084,
      "ied": 1085,
      "por": 1086,
      "pen": 1087,
      "Ġfirst": 1088,
      "Ġcorn": 1089,
      "Ġprior": 1090,
      "Ġplease": 1091,
      "als": 1092,
      "Ġreading": 1093,
      "old": 1094,
      "Ġhow": 1095,
      "Ġselect": 1096,
      "Ġeach": 1097,
      "ech": 1098,
      "ĠTV": 1099,
      "Ġla": 1100,
      "Ġun": 1101,
      "cept": 1102,
      "Ġbuilt": 1103,
      "Ġsolid": 1104,
      "Ġapol": 1105,
      "Ġtype": 1106,
      "iv": 1107,
      "sing": 1108,
      "ĠK": 1109,
      "ories": 1110,
      "Ġfull": 1111,
      "one": 1112,
      "ones": 1113,
      "Ġwater": 1114,
      "Ġmonth": 1115,
      "Ġtop": 1116,
      "ĠIf": 1117,
      "ĠWhen": 1118,
      "Ġinte": 1119,
      "ety": 1120,
      "Ġeven": 1121,
      "ĠCol": 1122,
      "Ġchild": 1123,
      "ĠEasy": 1124,
      "erson": 1125,
      "Ġcollections": 1126,
      "Ġexp": 1127,
      "used": 1128,
      "ĠLiving": 1129,
      "irm": 1130,
      "ĠMo": 1131,
      "umid": 1132,
      "Ġplan": 1133,
      "Ġinstall": 1134,
      "Ġtreatment": 1135,
      "Ġsystem": 1136,
      "Ġelements": 1137,
      "Ġcushions": 1138,
      "Ġlayou": 1139,
      "be": 1140,
      "clean": 1141,
      "gest": 1142,
      "ov": 1143,
      "ose": 1144,
      "Ġic": 1145,
      "Ġens": 1146,
      "rent": 1147,
      "Ġbal": 1148,
      "ark": 1149,
      "ides": 1150,
      "Ġprogram": 1151,
      "Ġcho": 1152,
      "Ġsho": 1153,
      "Ġshould": 1154,
      "ĠThese": 1155,
      "Ġfire": 1156,
      "Ġshelves": 1157,
      "Ġstudio": 1158,
      "axim": 1159,
      "ogize": 1160,
      "lexible": 1161,
      "Ġextra": 1162,
      "Ġapologize": 1163,
      "Ġicon": 1164,
      "Gu": 1165,
      "su": 1166,
      "ten": 1167,
      "Ġsal": 1168,
      "lection": 1169,
      "Ġdec": 1170,
      "Ġdire": 1171,
      "arn": 1172,
      "ically": 1173,
      "Ġhour": 1174,
      "Ġhapp": 1175,
      "ason": 1176,
      "Ġ10": 1177,
      "Ġlin": 1178,
      "ĠAlso": 1179,
      "ĠOf": 1180,
      "ĠStorage": 1181,
      "Ġexplore": 1182,
      "Ġensure": 1183,
      "eep": 1184,
      "oard": 1185,
      "Ġsim": 1186,
      "Ġmedi": 1187,
      "Ġmaxim": 1188,
      "Ġno": 1189,
      "Ġnav": 1190,
      "Ġorgan": 1191,
      "Ġ30": 1192,
      "ĠSof": 1193,
      "thing": 1194,
      "Ġsets": 1195,
      "formation": 1196,
      "ĠComfort": 1197,
      "Ġpackages": 1198,
      "Ġapartment": 1199,
      "indow": 1200,
      "Ġmultiple": 1201,
      "umidity": 1202,
      "49": 1203,
      "ban": 1204,
      "ral": 1205,
      "ĠQ": 1206,
      "Ġtap": 1207,
      "ouse": 1208,
      "Ġfamily": 1209,
      "Ġbas": 1210,
      "roof": 1211,
      "Ġtheir": 1212,
      "Ġsectional": 1213,
      "Ġlow": 1214,
      "Ġcancel": 1215,
      "Ġchange": 1216,
      "ĠOr": 1217,
      "ĠHe": 1218,
      "Ġweek": 1219,
      "Ġvar": 1220,
      "Ġtry": 1221,
      "Ġaddress": 1222,
      "Ġsafe": 1223,
      "Ġlarge": 1224,
      "Ġfocal": 1225,
      "Ġvisual": 1226,
      "ĠSelect": 1227,
      "Ġprevent": 1228,
      "Ġinterest": 1229,
      "ges": 1230,
      "rban": 1231,
      "Ġz": 1232,
      "iness": 1233,
      "reate": 1234,
      "Ġfunctional": 1235,
      "Ġwindow": 1236,
      "Ġperson": 1237,
      "anging": 1238,
      "Ġdon": 1239,
      "Ġdust": 1240,
      "Ġbus": 1241,
      "arm": 1242,
      "stall": 1243,
      "Ġopen": 1244,
      "Ġinformation": 1245,
      "Ġstep": 1246,
      "ĠCheck": 1247,
      "ĠCreate": 1248,
      "agement": 1249,
      "Ġheat": 1250,
      "Ġlearn": 1251,
      "Ġtrack": 1252,
      "Ġprefere": 1253,
      "Ġspecialized": 1254,
      "ĠReplace": 1255,
      "Ġmatching": 1256,
      "ĠWhich": 1257,
      "Ġglass": 1258,
      "Ġmonths": 1259,
      "Ġfireplace": 1260,
      "Guard": 1261,
      "Ġdirect": 1262,
      "Ġhours": 1263,
      "Ġbusiness": 1264,
      "'ve": 1265,
      "19": 1266,
      "St": 1267,
      "fety": 1268,
      "ness": 1269,
      "port": 1270,
      "Ġed": 1271,
      "ink": 1272,
      "ren": 1273,
      "lent": 1274,
      "lig": 1275,
      "Ġold": 1276,
      "Ġinter": 1277,
      "Ġhing": 1278,
      "Ġhumidity": 1279,
      "Ġnum": 1280,
      "ĠTr": 1281,
      "ify": 1282,
      "Ġmob": 1283,
      "Ġmod": 1284,
      "Ġround": 1285,
      "Ġpiece": 1286,
      "Ġprom": 1287,
      "Ġpremium": 1288,
      "Ġplans": 1289,
      "Ġwooden": 1290,
      "Ġaccount": 1291,
      "Ġspecifically": 1292,
      "Ġsche": 1293,
      "Ġresist": 1294,
      "ĠProv": 1295,
      "Ġcompletely": 1296,
      "void": 1297,
      "Ġemail": 1298,
      "Ġwashable": 1299,
      "Ġdays": 1300,
      "ibility": 1301,
      "porary": 1302,
      "ĠKeep": 1303,
      "ĠCollection": 1304,
      "Ġinstallation": 1305,
      "board": 1306,
      "ft": 1307,
      "ger": 1308,
      "lo": 1309,
      "line": 1310,
      "Ġaway": 1311,
      "Ġside": 1312,
      "ors": 1313,
      "Ġwhere": 1314,
      "lish": 1315,
      "Ġtoday": 1316,
      "Ġsto": 1317,
      "Ġsec": 1318,
      "Ġloc": 1319,
      "ĠAcc": 1320,
      "ĠAss": 1321,
      "utral": 1322,
      "Ġweather": 1323,
      "ples": 1324,
      "Ġaround": 1325,
      "ĠThey": 1326,
      "ĠThank": 1327,
      "ĠInstall": 1328,
      "Ġminimal": 1329,
      "Ġassist": 1330,
      "Ġrental": 1331,
      "Ġexperience": 1332,
      "Ġchildren": 1333,
      "Ġsales": 1334,
      "ĠAssess": 1335,
      "'.": 1336,
      "Care": 1337,
      "hod": 1338,
      "ng": 1339,
      "nces": 1340,
      "ton": 1341,
      "ually": 1342,
      "Ġjust": 1343,
      "ready": 1344,
      "Ġsit": 1345,
      "Ġce": 1346,
      "atus": 1347,
      "Ġwal": 1348,
      "het": 1349,
      "Ġmight": 1350,
      "stru": 1351,
      "lim": 1352,
      "Ġtool": 1353,
      "icular": 1354,
      "Ġfurnish": 1355,
      "Ġrest": 1356,
      "Ġstatus": 1357,
      "Ġequ": 1358,
      "own": 1359,
      "Ġconvers": 1360,
      "Ġconstru": 1361,
      "ization": 1362,
      "ĠPl": 1363,
      "Ġcreating": 1364,
      "Ġpric": 1365,
      "Ġcleaning": 1366,
      "Ġupd": 1367,
      "aged": 1368,
      "Ġquick": 1369,
      "Ġcloth": 1370,
      "ipment": 1371,
      "Ġrugs": 1372,
      "Ġlegs": 1373,
      "Ġkeep": 1374,
      "echn": 1375,
      "ĠModern": 1376,
      "ĠSofa": 1377,
      "Ġnumber": 1378,
      "Ġmodular": 1379,
      "29": 1380,
      "dy": 1381,
      "ggest": 1382,
      "oam": 1383,
      "tings": 1384,
      "Ġtechn": 1385,
      "ates": 1386,
      "Ġpain": 1387,
      "anc": 1388,
      "angular": 1389,
      "light": 1390,
      "rof": 1391,
      "ctangular": 1392,
      "ics": 1393,
      "Ġrece": 1394,
      "Ġrectangular": 1395,
      "Ġlo": 1396,
      "ified": 1397,
      "Ġgreat": 1398,
      "ĠAR": 1399,
      "ateg": 1400,
      "Ġmove": 1401,
      "Ġthree": 1402,
      "Ġcome": 1403,
      "Ġdef": 1404,
      "Ġconc": 1405,
      "Ġconne": 1406,
      "Ġleast": 1407,
      "Ġsuggest": 1408,
      "Ġshi": 1409,
      "ĠRem": 1410,
      "ifications": 1411,
      "Ġplace": 1412,
      "Ġkid": 1413,
      "Ġqueen": 1414,
      "Ġdurability": 1415,
      "aster": 1416,
      "Ġscreen": 1417,
      "aking": 1418,
      "dule": 1419,
      "Ġmethod": 1420,
      "Ġarrangement": 1421,
      "Ġguest": 1422,
      "Ġshelf": 1423,
      "cellent": 1424,
      "Ġfeel": 1425,
      "Ġother": 1426,
      "Ġottom": 1427,
      "Ġbuying": 1428,
      "Ġafter": 1429,
      "Ø§Ù": 1430,
      "Ġcurrent": 1431,
      "Ġcondition": 1432,
      "lign": 1433,
      "Ġhinge": 1434,
      "Ġceil": 1435,
      "Ġconstruction": 1436,
      "Ġpricing": 1437,
      "10": 1438,
      "br": 1439,
      "cri": 1440,
      "ef": 1441,
      "eak": 1442,
      "lc": 1443,
      "ming": 1444,
      "mart": 1445,
      "mount": 1446,
      "pon": 1447,
      "vir": 1448,
      "zy": 1449,
      "Ġ7": 1450,
      "ins": 1451,
      "rend": 1452,
      "Ġtem": 1453,
      "Ġfit": 1454,
      "Ġfoam": 1455,
      "ertain": 1456,
      "iting": 1457,
      "urp": 1458,
      "Ġmed": 1459,
      "Ġmem": 1460,
      "Ġmade": 1461,
      "omes": 1462,
      "arrow": 1463,
      "Ġtoo": 1464,
      "ise": 1465,
      "Ġhouse": 1466,
      "amad": 1467,
      "ĠAre": 1468,
      "ĠAll": 1469,
      "ĠSend": 1470,
      "Ġcomb": 1471,
      "Ġdep": 1472,
      "ustr": 1473,
      "Ġwebs": 1474,
      "Ġframe": 1475,
      "Ġsetup": 1476,
      "Ġbrow": 1477,
      "akes": 1478,
      "ody": 1479,
      "Ġenvir": 1480,
      "Ġsafety": 1481,
      "Ġphoto": 1482,
      "Ġdesks": 1483,
      "xture": 1484,
      "Ġpoints": 1485,
      "Ġdrawer": 1486,
      "Ġgray": 1487,
      "Ġchoice": 1488,
      "Ġshopping": 1489,
      "Ġlines": 1490,
      "Ġequipment": 1491,
      "Ġconversation": 1492,
      "ĠRemove": 1493,
      "amadan": 1494,
      "Ġwebsite": 1495,
      "Ġenviron": 1496,
      "',": 1497,
      "24": 1498,
      "aut": 1499,
      "ps": 1500,
      "ux": 1501,
      "ward": 1502,
      "yal": 1503,
      "Ġ#": 1504,
      "Ġsw": 1505,
      "Ġsave": 1506,
      "Ġtw": 1507,
      "Ġtall": 1508,
      "ited": 1509,
      "Ġwon": 1510,
      "Ġward": 1511,
      "urdy": 1512,
      "enu": 1513,
      "acing": 1514,
      "Ġrequ": 1515,
      "Ġstore": 1516,
      "Ġnec": 1517,
      "Ġnarrow": 1518,
      "Ġ20": 1519,
      "Ġ24": 1520,
      "Ġgreen": 1521,
      "ĠAvoid": 1522,
      "change": 1523,
      "essary": 1524,
      "Ġbeaut": 1525,
      "Ġpos": 1526,
      "Ġart": 1527,
      "ĠGreat": 1528,
      "Ġrespon": 1529,
      "ĠAdjustable": 1530,
      "Ġmany": 1531,
      "Ġprovides": 1532,
      "ĠComp": 1533,
      "Ġstains": 1534,
      "Ġstandard": 1535,
      "Ġlarger": 1536,
      "Ġapartments": 1537,
      "vertible": 1538,
      "Ġmodels": 1539,
      "Ġtypes": 1540,
      "Ġtypically": 1541,
      "Ġbooks": 1542,
      "Ġupholstery": 1543,
      "Ġscratch": 1544,
      "Ġhappy": 1545,
      "ĠOffer": 1546,
      "Ġvarious": 1547,
      "Ġpreferences": 1548,
      "Ġmobile": 1549,
      "Ġreceive": 1550,
      "Ġconnect": 1551,
      "Ġottomans": 1552,
      "Ġwardro": 1553,
      "dd": 1554,
      "ell": 1555,
      "ior": 1556,
      "ired": 1557,
      "ner": 1558,
      "pec": 1559,
      "ub": 1560,
      "Ġyear": 1561,
      "Ġalign": 1562,
      "infor": 1563,
      "rely": 1564,
      "Ġtrend": 1565,
      "Ġca": 1566,
      "atches": 1567,
      "atform": 1568,
      "onom": 1569,
      "Ġwide": 1570,
      "ury": 1571,
      "Ġthey": 1572,
      "Ġocc": 1573,
      "Ġhomes": 1574,
      "oosing": 1575,
      "Ġeco": 1576,
      "vel": 1577,
      "Ġlam": 1578,
      "ames": 1579,
      "ĠAr": 1580,
      "utdoor": 1581,
      "ĠEns": 1582,
      "Ġweight": 1583,
      "isture": 1584,
      "Ġval": 1585,
      "play": 1586,
      "Ġsoft": 1587,
      "Ġarm": 1588,
      "ĠRamadan": 1589,
      "Ġprim": 1590,
      "Ġprices": 1591,
      "ager": 1592,
      "Ġspecialist": 1593,
      "intage": 1594,
      "Ġdamaged": 1595,
      "Ġarrangements": 1596,
      "icker": 1597,
      "Ġinstru": 1598,
      "Ġpackage": 1599,
      "Ġmattresses": 1600,
      "Ġproducts": 1601,
      "Ġconsult": 1602,
      "Ġalready": 1603,
      "ffic": 1604,
      "Ġsunlight": 1605,
      "Ġpriority": 1606,
      "ĠProvide": 1607,
      "Ġsecure": 1608,
      "Ġnecessary": 1609,
      "ĠEnsure": 1610,
      "299": 1611,
      "Space": 1612,
      "foc": 1613,
      "mer": 1614,
      "ty": 1615,
      "Ġerg": 1616,
      "Ġsust": 1617,
      "orough": 1618,
      "Ġfut": 1619,
      "era": 1620,
      "ats": 1621,
      "atis": 1622,
      "ites": 1623,
      "itions": 1624,
      "itive": 1625,
      "itize": 1626,
      "let": 1627,
      "Ġwid": 1628,
      "ane": 1629,
      "Ġdist": 1630,
      "Ġdown": 1631,
      "Ġmild": 1632,
      "ctural": 1633,
      "Ġinvo": 1634,
      "Ġrecl": 1635,
      "Ġhard": 1636,
      "Ġeas": 1637,
      "Ġorders": 1638,
      "ases": 1639,
      "aming": 1640,
      "Ġgather": 1641,
      "Ġneutral": 1642,
      "imes": 1643,
      "Ġthorough": 1644,
      "Ġissu": 1645,
      "riv": 1646,
      "Ġframes": 1647,
      "ĠPre": 1648,
      "ĠĠĊĠ": 1649,
      "Ġposs": 1650,
      "ĠMy": 1651,
      "Ġdisplay": 1652,
      "Ġdifference": 1653,
      "Ġparticular": 1654,
      "ĠStart": 1655,
      "Ġmanagement": 1656,
      "Ġmanager": 1657,
      "Ġcheckout": 1658,
      "Ġpreferred": 1659,
      "ĠNo": 1660,
      "Ġwalls": 1661,
      "Ġexplain": 1662,
      "Ġdiscounts": 1663,
      "Ġremov": 1664,
      "Ġconfirm": 1665,
      "Ġcorner": 1666,
      "Ġfurnishing": 1667,
      "mounted": 1668,
      "Ġenvironment": 1669,
      "onomic": 1670,
      "Ġoccas": 1671,
      "Ġinstructions": 1672,
      "focused": 1673,
      "Ġsustain": 1674,
      "atisf": 1675,
      "Ġthoroughly": 1676,
      "Ġissues": 1677,
      "bed": 1678,
      "cm": 1679,
      "hy": 1680,
      "ix": 1681,
      "ili": 1682,
      "ient": 1683,
      "iber": 1684,
      "low": 1685,
      "Ġj": 1686,
      "Ġro": 1687,
      "Ġtom": 1688,
      "ord": 1689,
      "orrow": 1690,
      "ert": 1691,
      "Ġcall": 1692,
      "Ġmenu": 1693,
      "sts": 1694,
      "icrof": 1695,
      "Ġins": 1696,
      "Ġindoor": 1697,
      "Ġrel": 1698,
      "Ġsturdy": 1699,
      "oot": 1700,
      "Ġnight": 1701,
      "Ġsend": 1702,
      "ĠTap": 1703,
      "Ġspeak": 1704,
      "pped": 1705,
      "amera": 1706,
      "Ġhere": 1707,
      "Ġmoving": 1708,
      "Ġdeep": 1709,
      "artment": 1710,
      "izes": 1711,
      "Ġdescri": 1712,
      "Ġlet": 1713,
      "ĠPo": 1714,
      "Ġvintage": 1715,
      "Ġcozy": 1716,
      "Ġplatform": 1717,
      "grade": 1718,
      "assic": 1719,
      "formance": 1720,
      "Ġheights": 1721,
      "Ġprofile": 1722,
      "Ġnotifications": 1723,
      "Ġdoors": 1724,
      "Ġaccessories": 1725,
      "Ġdetailed": 1726,
      "Ġslide": 1727,
      "Ġgoing": 1728,
      "ivid": 1729,
      "Ġlayouts": 1730,
      "Ġmaximize": 1731,
      "Ġlower": 1732,
      "ĠHere": 1733,
      "Ġzones": 1734,
      "Ġfunctionality": 1735,
      "Ġconcer": 1736,
      "Ġposition": 1737,
      "Ġalignment": 1738,
      "Ġergonomic": 1739,
      "Ġpossible": 1740,
      "Ġtomorrow": 1741,
      "icrofiber": 1742,
      "199": 1743,
      "Family": 1744,
      "Outdoor": 1745,
      "bing": 1746,
      "hes": 1747,
      "king": 1748,
      "ling": 1749,
      "lse": 1750,
      "me": 1751,
      "mal": 1752,
      "mporary": 1753,
      "proof": 1754,
      "sor": 1755,
      "time": 1756,
      "ved": 1757,
      "view": 1758,
      "ÃĹ": 1759,
      "ĠJ": 1760,
      "Ġide": 1761,
      "Ġvers": 1762,
      "ĠØ§Ù": 1763,
      "Ġair": 1764,
      "inate": 1765,
      "ince": 1766,
      "reak": 1767,
      "Ġsatisf": 1768,
      "Ġsince": 1769,
      "ouble": 1770,
      "Ġcould": 1771,
      "ities": 1772,
      "Ġwa": 1773,
      "Ġwicker": 1774,
      "Ġmay": 1775,
      "Ġmark": 1776,
      "like": 1777,
      "rol": 1778,
      "Ġod": 1779,
      "abor": 1780,
      "Ġwithout": 1781,
      "Ġhot": 1782,
      "ooth": 1783,
      "Ġseason": 1784,
      "Ġelse": 1785,
      "ĠCl": 1786,
      "ĠFirst": 1787,
      "ĠFlexible": 1788,
      "Ġ14": 1789,
      "idd": 1790,
      "Ġproble": 1791,
      "Ġchoosing": 1792,
      "pth": 1793,
      "Ġgaming": 1794,
      "udio": 1795,
      "Ġhead": 1796,
      "temporary": 1797,
      "Ġmot": 1798,
      "ĠSet": 1799,
      "ĠSound": 1800,
      "Ġcomes": 1801,
      "Ġdepth": 1802,
      "clus": 1803,
      "ĠEach": 1804,
      "Ġang": 1805,
      "Ġfrustr": 1806,
      "Ġbeen": 1807,
      "ĠDining": 1808,
      "ĠMatch": 1809,
      "Ġrecommendations": 1810,
      "Ġtexture": 1811,
      "perature": 1812,
      "ills": 1813,
      "Ġcompet": 1814,
      "Ġenough": 1815,
      "Ġpets": 1816,
      "Ġfocus": 1817,
      "Ġclearance": 1818,
      "Ġdrawers": 1819,
      "Ġmodel": 1820,
      "Ġcommun": 1821,
      "Ġpath": 1822,
      "Ġpatter": 1823,
      "Ġeverything": 1824,
      "Ġextended": 1825,
      "Ġcorners": 1826,
      "Ġlayout": 1827,
      "Ġmedia": 1828,
      "Ġnavig": 1829,
      "hetic": 1830,
      "Ġquickly": 1831,
      "ancing": 1832,
      "ategories": 1833,
      "lcome": 1834,
      "urpose": 1835,
      "Ġmemory": 1836,
      "ĠCompact": 1837,
      "Ġwardrobe": 1838,
      "Ġinvoices": 1839,
      "Ġhardw": 1840,
      "Ġremovable": 1841,
      "clusive": 1842,
      "14": 1843,
      "Or": 1844,
      "Urban": 1845,
      "apt": 1846,
      "hip": 1847,
      "med": 1848,
      "overy": 1849,
      "par": 1850,
      "purpose": 1851,
      "saving": 1852,
      "tan": 1853,
      "vice": 1854,
      "we": 1855,
      "yle": 1856,
      "Ġess": 1857,
      "Ġvert": 1858,
      "Ġsens": 1859,
      "Ġtones": 1860,
      "oust": 1861,
      "Ġfil": 1862,
      "Ġflexible": 1863,
      "Ġcal": 1864,
      "Ġcap": 1865,
      "atul": 1866,
      "attan": 1867,
      "urable": 1868,
      "lic": 1869,
      "Ġthere": 1870,
      "Ġreal": 1871,
      "Ġreli": 1872,
      "Ġreview": 1873,
      "ollow": 1874,
      "Ġsepar": 1875,
      "Ġspills": 1876,
      "Ġ15": 1877,
      "Ġless": 1878,
      "Ġlbs": 1879,
      "amples": 1880,
      "ift": 1881,
      "iful": 1882,
      "ifunctional": 1883,
      "Ġmoisture": 1884,
      "Ġdeals": 1885,
      "Ġrather": 1886,
      "Ġexcellent": 1887,
      "ĠLe": 1888,
      "ĠDurable": 1889,
      "ilar": 1890,
      "ĠRep": 1891,
      "Ġadjust": 1892,
      "âĢĶ": 1893,
      "ishli": 1894,
      "osp": 1895,
      "Ġsmooth": 1896,
      "ĠCongr": 1897,
      "Ġallow": 1898,
      "Ġcomplement": 1899,
      "Ġimage": 1900,
      "Ġwarm": 1901,
      "ĠReinfor": 1902,
      "top": 1903,
      "Ġwarranties": 1904,
      "Ġpolish": 1905,
      "Ġsleeper": 1906,
      "Ġcharging": 1907,
      "Ġsynt": 1908,
      "Ġseller": 1909,
      "Ġbookc": 1910,
      "Ġkey": 1911,
      "Ġlistings": 1912,
      "Ġupholstered": 1913,
      "Ġscratches": 1914,
      "Ġsystems": 1915,
      "Ġbalance": 1916,
      "Ġdecor": 1917,
      "ĠQu": 1918,
      "ĠTraditional": 1919,
      "Ġrounded": 1920,
      "Ġschedule": 1921,
      "Ġshipped": 1922,
      "Ġceilings": 1923,
      "Ġbeautiful": 1924,
      "Ġwidth": 1925,
      "Ġgatherings": 1926,
      "Ġoccasional": 1927,
      "Ġsustainable": 1928,
      "idden": 1929,
      "Orders": 1930,
      "Ġessential": 1931,
      "atulations": 1932,
      "ĠCongratulations": 1933,
      "ĠReinforce": 1934,
      "18": 1935,
      "All": 1936,
      "Com": 1937,
      "Smart": 1938,
      "chen": 1939,
      "dable": 1940,
      "ole": 1941,
      "pired": 1942,
      "partment": 1943,
      "sue": 1944,
      "ÙĬ": 1945,
      "Ġy": 1946,
      "ĠÙ": 1947,
      "Ġver": 1948,
      "inal": 1949,
      "ording": 1950,
      "Ġcr": 1951,
      "Ġcat": 1952,
      "Ġcent": 1953,
      "Ġcount": 1954,
      "ative": 1955,
      "its": 1956,
      "itation": 1957,
      "Ġwed": 1958,
      "Ġdai": 1959,
      "Ġdual": 1960,
      "Ġmicrofiber": 1961,
      "Ġbreak": 1962,
      "Ġinv": 1963,
      "absor": 1964,
      "Ġhy": 1965,
      "Ġstill": 1966,
      "ĠFree": 1967,
      "ased": 1968,
      "assem": 1969,
      "Ġlabor": 1970,
      "iding": 1971,
      "Ġchan": 1972,
      "ĠSc": 1973,
      "Ġcontemporary": 1974,
      "other": 1975,
      "Ġmeet": 1976,
      "Ġleft": 1977,
      "ĠPrior": 1978,
      "Ġdeliver": 1979,
      "usion": 1980,
      "ĠMod": 1981,
      "oord": 1982,
      "Ġstylish": 1983,
      "Ġcoast": 1984,
      "ressure": 1985,
      "oss": 1986,
      "Ġsettings": 1987,
      "fordable": 1988,
      "ĠBoth": 1989,
      "avor": 1990,
      "ĠGo": 1991,
      "Ġimport": 1992,
      "shap": 1993,
      "Ġlonger": 1994,
      "Ġmultifunctional": 1995,
      "Ġconsole": 1996,
      "ĠWhile": 1997,
      "Ġaffordable": 1998,
      "Ġcommon": 1999,
      "Ġassess": 2000,
      "Ġentertain": 2001,
      "Ġaccept": 2002,
      "Ġviewing": 2003,
      "Ġbalcon": 2004,
      "tenance": 2005,
      "Ġsimilar": 2006,
      "Ġnavy": 2007,
      "ĠOrder": 2008,
      "Ġinterested": 2009,
      "Ġwindows": 2010,
      "Ġassistance": 2011,
      "Ġloyal": 2012,
      "Ġkids": 2013,
      "inspired": 2014,
      "Ġtemperature": 2015,
      "Ġmeditation": 2016,
      "Ġdepend": 2017,
      "uxury": 2018,
      "pecial": 2019,
      "Ġjo": 2020,
      "ĠJust": 2021,
      "Ġideal": 2022,
      "Ġsincerely": 2023,
      "Ġheadboard": 2024,
      "Ġvertical": 2025,
      "oustic": 2026,
      "Ġcapac": 2027,
      "Ġdaily": 2028,
      "absorbing": 2029,
      "Ġimportant": 2030,
      "au": 2031,
      "afe": 2032,
      "ipe": 2033,
      "nut": 2034,
      "ners": 2035,
      "ute": 2036,
      "uum": 2037,
      "vet": 2038,
      "word": 2039,
      "ym": 2040,
      "Ġes": 2041,
      "Ġaut": 2042,
      "Ġsound": 2043,
      "Ġsamples": 2044,
      "Ġter": 2045,
      "Ġfun": 2046,
      "Ġfading": 2047,
      "Ġflex": 2048,
      "Ġfoot": 2049,
      "Ġcra": 2050,
      "Ġcamera": 2051,
      "Ġcoord": 2052,
      "ath": 2053,
      "atile": 2054,
      "lend": 2055,
      "Ġwr": 2056,
      "Ġport": 2057,
      "Ġpass": 2058,
      "Ġpick": 2059,
      "hem": 2060,
      "Ġmir": 2061,
      "Ġbase": 2062,
      "Ġformal": 2063,
      "Ġinc": 2064,
      "Ġind": 2065,
      "ache": 2066,
      "acuum": 2067,
      "Ġhost": 2068,
      "Ġhidden": 2069,
      "seater": 2070,
      "vered": 2071,
      "ĠAnd": 2072,
      "ĠApartment": 2073,
      "imate": 2074,
      "Ġdoes": 2075,
      "estions": 2076,
      "Ġonline": 2077,
      "Ġits": 2078,
      "Ġrattan": 2079,
      "Ġfeet": 2080,
      "Ġlets": 2081,
      "ĠPos": 2082,
      "acket": 2083,
      "Ġshar": 2084,
      "ĠDry": 2085,
      "Ġrecovery": 2086,
      "ĠUV": 2087,
      "ĠUrban": 2088,
      "ĠMain": 2089,
      "Ġfinancing": 2090,
      "term": 2091,
      "Ġperformance": 2092,
      "ensation": 2093,
      "acter": 2094,
      "Ġwhite": 2095,
      "Ġsupportive": 2096,
      "Ġsetting": 2097,
      "Ġquestions": 2098,
      "Ġusing": 2099,
      "ĠConvertible": 2100,
      "pect": 2101,
      "avy": 2102,
      "ĠGood": 2103,
      "Ġresol": 2104,
      "Ġsleeping": 2105,
      "Ġcharacter": 2106,
      "Ġconsist": 2107,
      "Ġbracket": 2108,
      "ĠExp": 2109,
      "Ġentry": 2110,
      "Ġprioritize": 2111,
      "ĠComfortable": 2112,
      "Ġbased": 2113,
      "Ġpromot": 2114,
      "Ġsitting": 2115,
      "Ġcombin": 2116,
      "Ġvalue": 2117,
      "Ġconsultation": 2118,
      "Ġconfirmation": 2119,
      "Ġrelax": 2120,
      "hesive": 2121,
      "Ġwaiting": 2122,
      "Ġproblem": 2123,
      "Ġnavigation": 2124,
      "Ġrelief": 2125,
      "Ġsynthetic": 2126,
      "Ġbookcases": 2127,
      "Ġoccasionally": 2128,
      "shaped": 2129,
      "Ġflexibility": 2130,
      "Ġpickup": 2131,
      "200": 2132,
      "30": 2133,
      "45": 2134,
      "67": 2135,
      "He": 2136,
      "by": 2137,
      "body": 2138,
      "ced": 2139,
      "el": 2140,
      "got": 2141,
      "gine": 2142,
      "iod": 2143,
      "mmer": 2144,
      "ning": 2145,
      "ote": 2146,
      "Ø©": 2147,
      "ĠØ": 2148,
      "Ġvery": 2149,
      "ĠÃĹ": 2150,
      "Ġam": 2151,
      "Ġtight": 2152,
      "oub": 2153,
      "oun": 2154,
      "Ġcable": 2155,
      "Ġcard": 2156,
      "atest": 2157,
      "ont": 2158,
      "Ġpane": 2159,
      "uring": 2160,
      "Ġmix": 2161,
      "alle": 2162,
      "alog": 2163,
      "Ġben": 2164,
      "Ġbec": 2165,
      "Ġbot": 2166,
      "ication": 2167,
      "ĠWith": 2168,
      "accept": 2169,
      "ised": 2170,
      "Ġseal": 2171,
      "Ġelim": 2172,
      "ĠCable": 2173,
      "ĠCustom": 2174,
      "ĠTable": 2175,
      "Ġ12": 2176,
      "Ġlatest": 2177,
      "ption": 2178,
      "ĠAir": 2179,
      "chite": 2180,
      "Ġnext": 2181,
      "tect": 2182,
      "ational": 2183,
      "Ġissue": 2184,
      "Ġpill": 2185,
      "Ġexact": 2186,
      "acks": 2187,
      "ĠMost": 2188,
      "ĠRec": 2189,
      "Ġcred": 2190,
      "Ġadvice": 2191,
      "Ġlooks": 2192,
      "Ġaccent": 2193,
      "osed": 2194,
      "Ġdisaster": 2195,
      "aging": 2196,
      "astic": 2197,
      "grap": 2198,
      "ĠDoes": 2199,
      "aved": 2200,
      "Ġsmaller": 2201,
      "Ġbutton": 2202,
      "Ġcompact": 2203,
      "Ġcompensation": 2204,
      "Ġengine": 2205,
      "ssential": 2206,
      "Ġmind": 2207,
      "ĠProf": 2208,
      "ĠNe": 2209,
      "ĠVacuum": 2210,
      "ructural": 2211,
      "Ġ80": 2212,
      "Ġstanding": 2213,
      "Ġrepairs": 2214,
      "Ġworkspace": 2215,
      "Ġshared": 2216,
      "ergen": 2217,
      "Ġlisting": 2218,
      "Ġconditions": 2219,
      "129": 2220,
      "Ġunaccept": 2221,
      "ovese": 2222,
      "Ġsimple": 2223,
      "Ġmedium": 2224,
      "ĠQue": 2225,
      "Ġsectionals": 2226,
      "Ġpersonally": 2227,
      "Ġedges": 2228,
      "Ġinterior": 2229,
      "Ġstock": 2230,
      "ĠPlace": 2231,
      "Ġdefine": 2232,
      "brid": 2233,
      "Ġbrowse": 2234,
      "Ġphotograp": 2235,
      "Ġbookshel": 2236,
      "Ġprimary": 2237,
      "ĠPremium": 2238,
      "Ġodors": 2239,
      "Ġseparate": 2240,
      "Ġchanges": 2241,
      "Ġcapacity": 2242,
      "aupe": 2243,
      "Ġmirr": 2244,
      "4567": 2245,
      "Ġunacceptable": 2246,
      "499": 2247,
      "affic": 2248,
      "bers": 2249,
      "cu": 2250,
      "cul": 2251,
      "care": 2252,
      "ged": 2253,
      "ives": 2254,
      "man": 2255,
      "ned": 2256,
      "ogy": 2257,
      "ped": 2258,
      "sery": 2259,
      "trol": 2260,
      "ze": 2261,
      "Ġest": 2262,
      "inct": 2263,
      "Ġsqu": 2264,
      "Ġsag": 2265,
      "Ġsizes": 2266,
      "oup": 2267,
      "Ġfriend": 2268,
      "Ġfavor": 2269,
      "erm": 2270,
      "Ġchat": 2271,
      "Ġcour": 2272,
      "Ġcategories": 2273,
      "Ġcache": 2274,
      "onents": 2275,
      "Ġpa": 2276,
      "Ġpage": 2277,
      "Ġpad": 2278,
      "height": 2279,
      "Ġdate": 2280,
      "Ġdress": 2281,
      "Ġdark": 2282,
      "ursery": 2283,
      "Ġmold": 2284,
      "arily": 2285,
      "ross": 2286,
      "Ġtoward": 2287,
      "ĠIs": 2288,
      "Ġthem": 2289,
      "Ġint": 2290,
      "acy": 2291,
      "Ġreach": 2292,
      "Ġrepe": 2293,
      "ither": 2294,
      "Ġhall": 2295,
      "Ġstructural": 2296,
      "Ġlim": 2297,
      "Ġnursery": 2298,
      "Ġeither": 2299,
      "ecure": 2300,
      "ĠCo": 2301,
      "ĠCur": 2302,
      "ĠCal": 2303,
      "ĠCoffee": 2304,
      "Ġorig": 2305,
      "ower": 2306,
      "llation": 2307,
      "Ġlum": 2308,
      "Ġloss": 2309,
      "Ġcance": 2310,
      "amili": 2311,
      "Ġgard": 2312,
      "Ġgift": 2313,
      "Ġhear": 2314,
      "Ġdocu": 2315,
      "Ġthink": 2316,
      "ĠSh": 2317,
      "ĠSecure": 2318,
      "ĠEle": 2319,
      "ĠWelcome": 2320,
      "izing": 2321,
      "resh": 2322,
      "Ġexchange": 2323,
      "Ġfees": 2324,
      "Ġhelps": 2325,
      "Ġanother": 2326,
      "Ġvary": 2327,
      "Ġbeach": 2328,
      "Ġsummer": 2329,
      "quality": 2330,
      "Ġappro": 2331,
      "Ġappear": 2332,
      "Ġarchite": 2333,
      "Ġoffering": 2334,
      "Ġtraffic": 2335,
      "Ġcolorful": 2336,
      "Ġadapt": 2337,
      "Ġatt": 2338,
      "Ġseries": 2339,
      "ommod": 2340,
      "999": 2341,
      "Ġperiod": 2342,
      "Ġcoating": 2343,
      "Ġcohesive": 2344,
      "Ġworking": 2345,
      "Ġaccents": 2346,
      "Ġaccommod": 2347,
      "Ġwho": 2348,
      "Ġsca": 2349,
      "Ġsoap": 2350,
      "ĠStand": 2351,
      "ĠAdjust": 2352,
      "Ġcomponents": 2353,
      "Ġclai": 2354,
      "Ġclassic": 2355,
      "rowse": 2356,
      "Ġflow": 2357,
      "Ġmaintenance": 2358,
      "venience": 2359,
      "ĠVis": 2360,
      "Ġstudent": 2361,
      "Ġdoorways": 2362,
      "Ġbedrooms": 2363,
      "Ġaccessible": 2364,
      "oster": 2365,
      "Ġslight": 2366,
      "Ġmeasurements": 2367,
      "Ġseats": 2368,
      "Ġgroup": 2369,
      "Ġkitchen": 2370,
      "Ġbring": 2371,
      "Ġremove": 2372,
      "Ġextendable": 2373,
      "Ġacross": 2374,
      "Ġchoices": 2375,
      "ĠOrgan": 2376,
      "Ġstool": 2377,
      "ĠAccess": 2378,
      "Ġminimalist": 2379,
      "ngth": 2380,
      "Ġtools": 2381,
      "Ġupdate": 2382,
      "Ġmovement": 2383,
      "Ġdefin": 2384,
      "Ġmethods": 2385,
      "Ġguests": 2386,
      "Ġtwo": 2387,
      "Ġtrending": 2388,
      "Ġfuture": 2389,
      "Ġreclin": 2390,
      "Ġeasi": 2391,
      "Ġnightstand": 2392,
      "Ġseasonal": 2393,
      "Ġpathways": 2394,
      "Ġpatterns": 2395,
      "ĠLeave": 2396,
      "ishlist": 2397,
      "ĠQuick": 2398,
      "Ġcatalog": 2399,
      "Ġhybrid": 2400,
      "ĠModular": 2401,
      "Ġcoordin": 2402,
      "ĠPosition": 2403,
      "Ġresolve": 2404,
      "oubles": 2405,
      "Ġsealant": 2406,
      "Ġengineered": 2407,
      "Ġfriends": 2408,
      "Ġcourse": 2409,
      "Ġoriginal": 2410,
      "Ġcancellation": 2411,
      "79": 2412,
      "Pro": 2413,
      "Pet": 2414,
      "bn": 2415,
      "cial": 2416,
      "ds": 2417,
      "ever": 2418,
      "gant": 2419,
      "iate": 2420,
      "lin": 2421,
      "lay": 2422,
      "less": 2423,
      "mosp": 2424,
      "ob": 2425,
      "slet": 2426,
      "Ø¹": 2427,
      "ĠâĢ": 2428,
      "Ġvel": 2429,
      "Ġact": 2430,
      "Ġswap": 2431,
      "Ġtimes": 2432,
      "Ġfarm": 2433,
      "Ġfresh": 2434,
      "erify": 2435,
      "Ġcas": 2436,
      "Ġclim": 2437,
      "hed": 2438,
      "Ġdivid": 2439,
      "Ġmis": 2440,
      "Ġblend": 2441,
      "lies": 2442,
      "Ġinit": 2443,
      "Ġinto": 2444,
      "acation": 2445,
      "ets": 2446,
      "Ġev": 2447,
      "Ġoften": 2448,
      "ĠClear": 2449,
      "ĠFull": 2450,
      "ĠTables": 2451,
      "ĠTell": 2452,
      "Ġlost": 2453,
      "Ġluxury": 2454,
      "ident": 2455,
      "idents": 2456,
      "Ġ25": 2457,
      "Ġ36": 2458,
      "Ġproce": 2459,
      "ĠAs": 2460,
      "ĠAvailable": 2461,
      "Ġheavy": 2462,
      "Ġthose": 2463,
      "utes": 2464,
      "ĠSp": 2465,
      "Ġwear": 2466,
      "otton": 2467,
      "ants": 2468,
      "isting": 2469,
      "Ġexc": 2470,
      "Ġexisting": 2471,
      "ĠHowever": 2472,
      "airs": 2473,
      "ĠPack": 2474,
      "Ġdelivered": 2475,
      "uss": 2476,
      "Ġsuch": 2477,
      "Ġshort": 2478,
      "ĠDes": 2479,
      "irt": 2480,
      "Ġrecording": 2481,
      "Ġarri": 2482,
      "ĠMe": 2483,
      "Ġatmosp": 2484,
      "Ġ5000": 2485,
      "Ġteal": 2486,
      "Ġcool": 2487,
      "ensity": 2488,
      "Ġking": 2489,
      "olution": 2490,
      "Ġaccidents": 2491,
      "Ġstarted": 2492,
      "ĠFurniture": 2493,
      "Ġsmart": 2494,
      "Ġanything": 2495,
      "itely": 2496,
      "Ġenh": 2497,
      "Ġmanage": 2498,
      "Ġproperly": 2499,
      "Ġpayments": 2500,
      "Ġnewslet": 2501,
      "Ġretail": 2502,
      "Ġshelving": 2503,
      "Ġminutes": 2504,
      "Ġ60": 2505,
      "ĠVerify": 2506,
      "Ġ84": 2507,
      "Ġtreatments": 2508,
      "Ġcharge": 2509,
      "Ġclearly": 2510,
      "apping": 2511,
      "Ø§Ø": 2512,
      "Ġacoustic": 2513,
      "ffice": 2514,
      "Ġevening": 2515,
      "Ġexpress": 2516,
      "Ġplanning": 2517,
      "Ġhappen": 2518,
      "Ġnobody": 2519,
      "Ġorganized": 2520,
      "Ġorganization": 2521,
      "Ġweeks": 2522,
      "Ġtrying": 2523,
      "Ġvisualize": 2524,
      "Ġpersonal": 2525,
      "Ġtracking": 2526,
      "Studio": 2527,
      "Ġintern": 2528,
      "Ġupdates": 2529,
      "ĠArea": 2530,
      "Ġcombine": 2531,
      "Ġrequest": 2532,
      "Ġrespons": 2533,
      "Ġcaf": 2534,
      "lette": 2535,
      "OutdoorCare": 2536,
      "ĠØ§ÙĦ": 2537,
      "Ġmother": 2538,
      "Ġfrustration": 2539,
      "Ġtextures": 2540,
      "Ġhardware": 2541,
      "ĠRepair": 2542,
      "Comfort": 2543,
      "assemble": 2544,
      "ĠPriority": 2545,
      "Ġcoasters": 2546,
      "Ġbalcony": 2547,
      "Ġloyalty": 2548,
      "Ġjoint": 2549,
      "Ġsounds": 2550,
      "Ġconsistent": 2551,
      "ĠExpress": 2552,
      "Ġpromotions": 2553,
      "Ġcards": 2554,
      "Ġbottom": 2555,
      "ĠAirbn": 2556,
      "ĠQueen": 2557,
      "Ġphotography": 2558,
      "management": 2559,
      "Ġestim": 2560,
      "Ġsagging": 2561,
      "ermine": 2562,
      "Ġpalette": 2563,
      "ĠCurrent": 2564,
      "Ġaccommodate": 2565,
      "ĠStandard": 2566,
      "Ġstools": 2567,
      "ĠâĢĵ": 2568,
      "Ġvelvet": 2569,
      "Ġdividers": 2570,
      "Ġproceed": 2571,
      "Ġatmosphere": 2572,
      "ĠAirbnb": 2573,
      "16": 2574,
      "399": 2575,
      "699": 2576,
      "Ow": 2577,
      "Wood": 2578,
      "action": 2579,
      "aise": 2580,
      "bu": 2581,
      "bar": 2582,
      "back": 2583,
      "com": 2584,
      "cent": 2585,
      "ect": 2586,
      "eather": 2587,
      "free": 2588,
      "functional": 2589,
      "fts": 2590,
      "ia": 2591,
      "ige": 2592,
      "iers": 2593,
      "ios": 2594,
      "ject": 2595,
      "lt": 2596,
      "month": 2597,
      "no": 2598,
      "ock": 2599,
      "odern": 2600,
      "pos": 2601,
      "ring": 2602,
      "ranging": 2603,
      "yc": 2604,
      "ye": 2605,
      "ys": 2606,
      "iny": 2607,
      "inum": 2608,
      "reme": 2609,
      "Ġsl": 2610,
      "Ġsour": 2611,
      "Ġsaved": 2612,
      "Ġtaking": 2613,
      "Ġtakes": 2614,
      "Ġful": 2615,
      "Ġfollow": 2616,
      "Ġfamili": 2617,
      "erit": 2618,
      "ergy": 2619,
      "Ġcou": 2620,
      "Ġcotton": 2621,
      "leep": 2622,
      "Ġwipe": 2623,
      "Ġpressure": 2624,
      "hedule": 2625,
      "Ġdr": 2626,
      "Ġdry": 2627,
      "Ġdoubles": 2628,
      "Ġmar": 2629,
      "Ġmid": 2630,
      "Ġmust": 2631,
      "Ġmus": 2632,
      "Ġtoget": 2633,
      "cture": 2634,
      "ician": 2635,
      "icated": 2636,
      "ĠWr": 2637,
      "Ġreg": 2638,
      "Ġreally": 2639,
      "Ġready": 2640,
      "olute": 2641,
      "ology": 2642,
      "Ġhon": 2643,
      "Ġhig": 2644,
      "Ġhair": 2645,
      "Ġhaving": 2646,
      "Ġhanging": 2647,
      "Ġstr": 2648,
      "Ġstay": 2649,
      "entle": 2650,
      "Ġnook": 2651,
      "Ġsections": 2652,
      "ĠTake": 2653,
      "Ġloun": 2654,
      "ails": 2655,
      "aimed": 2656,
      "Ġgive": 2657,
      "Ġgym": 2658,
      "Ġgives": 2659,
      "Ġgentle": 2660,
      "ĠOn": 2661,
      "ĠSmart": 2662,
      "ĠHi": 2663,
      "ĠHome": 2664,
      "ĠHaving": 2665,
      "Ġdefect": 2666,
      "Ġconvertible": 2667,
      "ĠEnt": 2668,
      "ĠEssential": 2669,
      "estal": 2670,
      "adjustable": 2671,
      "ĠWeather": 2672,
      "Ġrust": 2673,
      "Ġexam": 2674,
      "Ġexclusive": 2675,
      "Ġmeals": 2676,
      "Ġhelpful": 2677,
      "Ġoption": 2678,
      "ape": 2679,
      "Ġlength": 2680,
      "Ġvacation": 2681,
      "Ġsuit": 2682,
      "ĠLight": 2683,
      "ĠDust": 2684,
      "Ġapply": 2685,
      "ideo": 2686,
      "ilities": 2687,
      "Ġpost": 2688,
      "Ġarms": 2689,
      "Ġfeatured": 2690,
      "Ġcleaners": 2691,
      "Ġcost": 2692,
      "Ġplay": 2693,
      "Ġplus": 2694,
      "Ġplastic": 2695,
      "Ġwoods": 2696,
      "ensive": 2697,
      "Ġkind": 2698,
      "rast": 2699,
      "ored": 2700,
      "Ġsolution": 2701,
      "astal": 2702,
      "Ġways": 2703,
      "Ġunderne": 2704,
      "ĠBed": 2705,
      "ĠBrowse": 2706,
      "Ġcustomers": 2707,
      "Ġmeters": 2708,
      "ĠStore": 2709,
      "Ġbacks": 2710,
      "ĠRef": 2711,
      "Ġsale": 2712,
      "Ġdiscuss": 2713,
      "Ġreport": 2714,
      "Ġcontrast": 2715,
      "Ġdetermine": 2716,
      "Ġsleek": 2717,
      "Ġpackaging": 2718,
      "Ġaccessibility": 2719,
      "Ġassemble": 2720,
      "Ġhasn": 2721,
      "Ġvisit": 2722,
      "rests": 2723,
      "Ġsometimes": 2724,
      "Ġsellers": 2725,
      "Ġglue": 2726,
      "ĠSectional": 2727,
      "Ġtransition": 2728,
      "Ġcushion": 2729,
      "Ġprocessing": 2730,
      "ĠExcellent": 2731,
      "Ġentire": 2732,
      "Ġdecide": 2733,
      "Ġweekly": 2734,
      "Ġedge": 2735,
      "load": 2736,
      "Ġsitu": 2737,
      "Ġwalking": 2738,
      "Ġshipping": 2739,
      "Ġcurrently": 2740,
      "Ġceiling": 2741,
      "Ġfits": 2742,
      "Ġmedical": 2743,
      "ĠSending": 2744,
      "Ġscratching": 2745,
      "Ġtrends": 2746,
      "Ġlamp": 2747,
      "Ġprimarily": 2748,
      "Ġfuton": 2749,
      "Ġdistinct": 2750,
      "Ġdownload": 2751,
      "Ġeasily": 2752,
      "rivacy": 2753,
      "Ġparticularly": 2754,
      "Ġletting": 2755,
      "ĠPolish": 2756,
      "Ġconcern": 2757,
      "Ġairy": 2758,
      "Ġmarket": 2759,
      "Ġcommunication": 2760,
      "Ġcomplementary": 2761,
      "Ġyet": 2762,
      "Ġverified": 2763,
      "Ġcrack": 2764,
      "Ġcenter": 2765,
      "Ġwedding": 2766,
      "Ġentertaining": 2767,
      "Ġterms": 2768,
      "Ġcrafts": 2769,
      "Ġsharing": 2770,
      "ĠMaintain": 2771,
      "Ġcharacterist": 2772,
      "Ġeliminate": 2773,
      "Ġcredit": 2774,
      "ĠProfessional": 2775,
      "Ġbookshelves": 2776,
      "Ġhallways": 2777,
      "Ġlimited": 2778,
      "Ġlumbar": 2779,
      "Ġgarden": 2780,
      "ĠVisit": 2781,
      "Ġslightly": 2782,
      "Ġdefinitely": 2783,
      "Ġnightstands": 2784,
      "irtual": 2785,
      "Ġnewsletter": 2786,
      "Ġestimated": 2787,
      "Owned": 2788,
      "Ġfully": 2789,
      "Ġfamilies": 2790,
      "eritage": 2791,
      "Ġtogether": 2792,
      "olutely": 2793,
      "Ġhigher": 2794,
      "Ġunderneath": 2795,
      "):": 2796,
      "3000": 2797,
      "89": 2798,
      "Add": 2799,
      "Co": 2800,
      "Furn": 2801,
      "Living": 2802,
      "My": 2803,
      "Modern": 2804,
      "Re": 2805,
      "Sc": 2806,
      "Ste": 2807,
      "az": 2808,
      "bst": 2809,
      "cast": 2810,
      "dcast": 2811,
      "fr": 2812,
      "firm": 2813,
      "house": 2814,
      "iqu": 2815,
      "iety": 2816,
      "ky": 2817,
      "loor": 2818,
      "mes": 2819,
      "mans": 2820,
      "mats": 2821,
      "oom": 2822,
      "oad": 2823,
      "ohem": 2824,
      "ph": 2825,
      "set": 2826,
      "sized": 2827,
      "then": 2828,
      "uch": 2829,
      "vie": 2830,
      "xic": 2831,
      "Ã©": 2832,
      "Øª": 2833,
      "ÙĦ": 2834,
      "Ùħ": 2835,
      "Ġ9": 2836,
      "Ġx": 2837,
      "Ġet": 2838,
      "Ġroof": 2839,
      "inter": 2840,
      "inav": 2841,
      "Ġsure": 2842,
      "Ġsage": 2843,
      "Ġsoc": 2844,
      "Ġsides": 2845,
      "Ġslo": 2846,
      "Ġtal": 2847,
      "Ġtest": 2848,
      "Ġtaupe": 2849,
      "oud": 2850,
      "Ġfre": 2851,
      "Ġfac": 2852,
      "Ġface": 2853,
      "Ġfound": 2854,
      "Ġfirm": 2855,
      "Ġfacing": 2856,
      "Ġfoster": 2857,
      "ercial": 2858,
      "ata": 2859,
      "ator": 2860,
      "itor": 2861,
      "lete": 2862,
      "Ġpor": 2863,
      "Ġped": 2864,
      "Ġpol": 2865,
      "Ġdrop": 2866,
      "Ġdouble": 2867,
      "urb": 2868,
      "Ġmess": 2869,
      "Ġmach": 2870,
      "Ġmaking": 2871,
      "Ġmakes": 2872,
      "Ġmites": 2873,
      "Ġmuch": 2874,
      "Ġbad": 2875,
      "ene": 2876,
      "ener": 2877,
      "arage": 2878,
      "style": 2879,
      "Ġthen": 2880,
      "Ġincon": 2881,
      "etreat": 2882,
      "Ġhous": 2883,
      "ental": 2884,
      "entil": 2885,
      "season": 2886,
      "Ġnon": 2887,
      "Ġseve": 2888,
      "Ġef": 2889,
      "Ġelect": 2890,
      "Ġeye": 2891,
      "Ġorn": 2892,
      "ows": 2893,
      "owder": 2894,
      "ĠFollow": 2895,
      "ĠTem": 2896,
      "ĠTough": 2897,
      "igur": 2898,
      "Ġ100": 2899,
      "Ġlater": 2900,
      "Ġlovese": 2901,
      "mentation": 2902,
      "pplies": 2903,
      "Ġgarage": 2904,
      "ĠAc": 2905,
      "ĠAn": 2906,
      "atement": 2907,
      "aceful": 2908,
      "Ġnegot": 2909,
      "Ġmovie": 2910,
      "utter": 2911,
      "ĠSw": 2912,
      "ĠSug": 2913,
      "ĠSear": 2914,
      "ĠSpecial": 2915,
      "ĠHave": 2916,
      "Ġdelay": 2917,
      "Ġconvert": 2918,
      "ĠEvery": 2919,
      "ĠExt": 2920,
      "ĠEdd": 2921,
      "ained": 2922,
      "oft": 2923,
      "Ġones": 2924,
      "Ġmatches": 2925,
      "resent": 2926,
      "andinav": 2927,
      "Ġoptimal": 2928,
      "aper": 2929,
      "Ġviny": 2930,
      "Ġventil": 2931,
      "using": 2932,
      "ackable": 2933,
      "Ġbeige": 2934,
      "Ġsupplies": 2935,
      "pload": 2936,
      "ĠDis": 2937,
      "Ġappe": 2938,
      "Ġpodcast": 2939,
      "Ġarriv": 2940,
      "Ġtrained": 2941,
      "ĠMat": 2942,
      "ĠMem": 2943,
      "ĠMult": 2944,
      "arding": 2945,
      "plete": 2946,
      "Ġpract": 2947,
      "ĠThere": 2948,
      "Ġ50": 2949,
      "Ġ500": 2950,
      "Ġtear": 2951,
      "Ġcosts": 2952,
      "actile": 2953,
      "rick": 2954,
      "oset": 2955,
      "Ġstarts": 2956,
      "Ġbuild": 2957,
      "ĠBe": 2958,
      "ĠBook": 2959,
      "Ġcustomize": 2960,
      "Ġcustomization": 2961,
      "tains": 2962,
      "Ġmeter": 2963,
      "Ġreflect": 2964,
      "Ġthroughout": 2965,
      "Ġpartner": 2966,
      "Ġpartners": 2967,
      "ĠAdding": 2968,
      "Ġcompare": 2969,
      "Ġwarp": 2970,
      "Ġenable": 2971,
      "Ġsaid": 2972,
      "Ġdiscre": 2973,
      "Ġflood": 2974,
      "Ġblack": 2975,
      "Ġblank": 2976,
      "Ġproviding": 2977,
      "toxic": 2978,
      "Ġminor": 2979,
      "Ġminim": 2980,
      "ĠProtect": 2981,
      "ĠNow": 2982,
      "ĠComplete": 2983,
      "fully": 2984,
      "Ġsleepers": 2985,
      "Ġcharco": 2986,
      "Ġvisually": 2987,
      "orning": 2988,
      "Ġwellness": 2989,
      "Ġcabinets": 2990,
      "Ġaffect": 2991,
      "Ġtransform": 2992,
      "ĠAdditional": 2993,
      "ĠExtend": 2994,
      "Ġextends": 2995,
      "Ġmaintaining": 2996,
      "Ġcurtains": 2997,
      "echan": 2998,
      "Ġwaterproof": 2999,
      "ĠColor": 3000,
      "Ġexpand": 3001,
      "Ġplanner": 3002,
      "support": 3003,
      "Ġmaximum": 3004,
      "Ġaddresses": 3005,
      "Ġpreference": 3006,
      "Style": 3007,
      "Ġpromised": 3008,
      "Ġresists": 3009,
      "Ġresistance": 3010,
      "ĠProviding": 3011,
      "Ġlocal": 3012,
      "Ġlocation": 3013,
      "Ġwalnut": 3014,
      "Ġrestore": 3015,
      "Ġkeeps": 3016,
      "Ġtechnical": 3017,
      "Ġtechnician": 3018,
      "Ġtechnology": 3019,
      "Ġplacemats": 3020,
      "Ġconditioner": 3021,
      "Ġbrowsing": 3022,
      "Ġtaller": 3023,
      "Ġrequire": 3024,
      "Ġresponse": 3025,
      "Ġconnecting": 3026,
      "Ġyears": 3027,
      "Ġlamps": 3028,
      "ĠPreOwned": 3029,
      "Ġroyal": 3030,
      "ertified": 3031,
      "Ġnights": 3032,
      "Ġdeeply": 3033,
      "Ġconcerns": 3034,
      "Ġversatile": 3035,
      "ĠCloud": 3036,
      "Ġcompetitor": 3037,
      "Ġhardwood": 3038,
      "weight": 3039,
      "Ġsensory": 3040,
      "Ġsensitive": 3041,
      "Ġreviews": 3042,
      "Ġallows": 3043,
      "Ġinvest": 3044,
      "ĠSchedule": 3045,
      "ĠScandinav": 3046,
      "Ġdepends": 3047,
      "pecially": 3048,
      "Ġespecially": 3049,
      "Ġwrong": 3050,
      "Ġpassword": 3051,
      "Ġindivid": 3052,
      "Ġentryway": 3053,
      "Ġcombination": 3054,
      "Ġrelaxation": 3055,
      "Ġbenches": 3056,
      "ergency": 3057,
      "Ġmirror": 3058,
      "45678": 3059,
      "Ġsquare": 3060,
      "Ġfavorites": 3061,
      "ĠCalming": 3062,
      "Ġthinking": 3063,
      "Ġvarying": 3064,
      "Ġapprox": 3065,
      "Ġclaims": 3066,
      "Ġrecliners": 3067,
      "Ġeasier": 3068,
      "Ġarrives": 3069,
      "Ġinternational": 3070,
      "buy": 3071,
      "Ġcouples": 3072,
      "Ġmusic": 3073,
      "Ġexample": 3074,
      "Ġcraftsmans": 3075,
      "Ġcharacteristics": 3076,
      "Furniture": 3077,
      "Steady": 3078,
      "ohemian": 3079,
      "Ġetc": 3080,
      "Ġrooftop": 3081,
      "Ġsocial": 3082,
      "Ġtalk": 3083,
      "Ġpedestal": 3084,
      "Ġpoly": 3085,
      "Ġmachine": 3086,
      "Ġbadge": 3087,
      "Ġinconvenience": 3088,
      "ĠSuggest": 3089,
      "ĠSearch": 3090,
      "ĠEddie": 3091,
      "Ġvinyl": 3092,
      "Ġventilation": 3093,
      "Ġcharcoal": 3094,
      "ĠScandinavian": 3095,
      "Ġcraftsmanship": 3096,
      "-$": 3097,
      "15": 3098,
      "34": 3099,
      "349": 3100,
      "Acc": 3101,
      "Fit": 3102,
      "Friendly": 3103,
      "Home": 3104,
      "Met": 3105,
      "Proof": 3106,
      "SB": 3107,
      "SC": 3108,
      "Set": 3109,
      "Work": 3110,
      "boo": 3111,
      "col": 3112,
      "cry": 3113,
      "cise": 3114,
      "dry": 3115,
      "drop": 3116,
      "density": 3117,
      "ew": 3118,
      "eli": 3119,
      "ead": 3120,
      "fers": 3121,
      "fact": 3122,
      "hor": 3123,
      "home": 3124,
      "lass": 3125,
      "not": 3126,
      "over": 3127,
      "pan": 3128,
      "pend": 3129,
      "person": 3130,
      "ron": 3131,
      "ray": 3132,
      "sive": 3133,
      "size": 3134,
      "ttom": 3135,
      "ufact": 3136,
      "vate": 3137,
      "work": 3138,
      "whel": 3139,
      "ĠZ": 3140,
      "Ġge": 3141,
      "Ġaction": 3142,
      "Ġant": 3143,
      "Ġavoid": 3144,
      "inse": 3145,
      "inimal": 3146,
      "rete": 3147,
      "rehen": 3148,
      "Ġsen": 3149,
      "Ġsand": 3150,
      "Ġsame": 3151,
      "Ġtip": 3152,
      "orpor": 3153,
      "Ġfood": 3154,
      "Ġfold": 3155,
      "err": 3156,
      "Ġche": 3157,
      "Ġcart": 3158,
      "Ġcri": 3159,
      "Ġcir": 3160,
      "Ġcase": 3161,
      "Ġchem": 3162,
      "ond": 3163,
      "ital": 3164,
      "level": 3165,
      "Ġwor": 3166,
      "Ġwhe": 3167,
      "Ġwra": 3168,
      "Ġwob": 3169,
      "Ġpowder": 3170,
      "Ġdig": 3171,
      "urg": 3172,
      "urate": 3173,
      "urity": 3174,
      "Ġmag": 3175,
      "Ġmorning": 3176,
      "Ġmechan": 3177,
      "alth": 3178,
      "alnut": 3179,
      "Ġyoung": 3180,
      "oming": 3181,
      "Ġbig": 3182,
      "Ġbold": 3183,
      "Ġbrick": 3184,
      "Ġbohemian": 3185,
      "aries": 3186,
      "ĠWarm": 3187,
      "ĠWalnut": 3188,
      "acious": 3189,
      "ably": 3190,
      "Ġwithstand": 3191,
      "isms": 3192,
      "Ġhar": 3193,
      "Ġhide": 3194,
      "Ġsecon": 3195,
      "Ġend": 3196,
      "Ġeld": 3197,
      "vels": 3198,
      "ecor": 3199,
      "ĠCli": 3200,
      "ĠFamily": 3201,
      "ĠFloor": 3202,
      "ĠTe": 3203,
      "ĠTest": 3204,
      "asic": 3205,
      "igate": 3206,
      "Ġspacious": 3207,
      "Ġline": 3208,
      "Ġlove": 3209,
      "ids": 3210,
      "Ġproport": 3211,
      "Ġproject": 3212,
      "Ġupload": 3213,
      "aired": 3214,
      "Ġchalle": 3215,
      "Ġchaise": 3216,
      "amboo": 3217,
      "ptions": 3218,
      "aybed": 3219,
      "Ġgener": 3220,
      "ĠAbs": 3221,
      "ĠOver": 3222,
      "ĠOffice": 3223,
      "ĠOttom": 3224,
      "Ġheating": 3225,
      "chor": 3226,
      "uty": 3227,
      "rooms": 3228,
      "ĠHigh": 3229,
      "ades": 3230,
      "ersatile": 3231,
      "Ġwelc": 3232,
      "Ġoffices": 3233,
      "Ġrun": 3234,
      "Ġranging": 3235,
      "Ġrub": 3236,
      "outdoor": 3237,
      "Ġmean": 3238,
      "ands": 3239,
      "Ġfew": 3240,
      "Ġfeed": 3241,
      "derful": 3242,
      "Ġanchor": 3243,
      "Ġleaving": 3244,
      "ĠPressure": 3245,
      "ĠPower": 3246,
      "Ġvia": 3247,
      "Ġvideo": 3248,
      "Ġvirtual": 3249,
      "usually": 3250,
      "Ġbeing": 3251,
      "Ġsubst": 3252,
      "ĠDon": 3253,
      "ĠDeli": 3254,
      "ĠDaybed": 3255,
      "quent": 3256,
      "ivel": 3257,
      "ively": 3258,
      "iles": 3259,
      "ĠUp": 3260,
      "ĠUSB": 3261,
      "Ġtrouble": 3262,
      "ĠMet": 3263,
      "ĠRinse": 3264,
      "Ġcream": 3265,
      "uminum": 3266,
      "tern": 3267,
      "Ġcleanup": 3268,
      "Ġperpend": 3269,
      "Ġcover": 3270,
      "Ġplant": 3271,
      "actor": 3272,
      "actions": 3273,
      "Ġquiz": 3274,
      "Ġcomfortably": 3275,
      "reathable": 3276,
      "ĠControl": 3277,
      "Ġallerg": 3278,
      "ground": 3279,
      "aves": 3280,
      "ĠGrow": 3281,
      "Ġrefin": 3282,
      "Ġsomeone": 3283,
      "Ġimp": 3284,
      "Ġclosed": 3285,
      "Ġbackdrop": 3286,
      "Ġbackground": 3287,
      "Ġsaving": 3288,
      "Ġchecking": 3289,
      "Ġcontrol": 3290,
      "Ġinstead": 3291,
      "ĠView": 3292,
      "ĠVersatile": 3293,
      "Ġpurpos": 3294,
      "Ġstudy": 3295,
      "Ġstudents": 3296,
      "ometric": 3297,
      "Ġreturns": 3298,
      "Ġtreated": 3299,
      "Ġvisible": 3300,
      "Ġbuyers": 3301,
      "Ġgoes": 3302,
      "Ġaluminum": 3303,
      "Ġcarefully": 3304,
      "Ġextreme": 3305,
      "Ġtransactions": 3306,
      "Ġfloors": 3307,
      "Ġflooring": 3308,
      "ĠExchange": 3309,
      "Ġpreview": 3310,
      "Ġprevious": 3311,
      "Ġexperien": 3312,
      "Ġconfusion": 3313,
      "Ġconfigur": 3314,
      "Ġoverwhel": 3315,
      "Ġunits": 3316,
      "ivity": 3317,
      "Ġprograms": 3318,
      "Ġshoulder": 3319,
      "Ġlinen": 3320,
      "Ġbasic": 3321,
      "Ġbasics": 3322,
      "armon": 3323,
      "Ġsteps": 3324,
      "Ġdirectly": 3325,
      "inks": 3326,
      "ĠTrack": 3327,
      "Ġmobility": 3328,
      "Ġschemes": 3329,
      "Ġsecurity": 3330,
      "Ġlocations": 3331,
      "ĠAccent": 3332,
      "Ġwalk": 3333,
      "anced": 3334,
      "rofile": 3335,
      "Ġconcrete": 3336,
      "Ġplacement": 3337,
      "Ġ76": 3338,
      "Ġtemporary": 3339,
      "urphy": 3340,
      "ustrial": 3341,
      "Ġsetups": 3342,
      "Ġswivel": 3343,
      "Ġbeauty": 3344,
      "Ġstandards": 3345,
      "Ġvalu": 3346,
      "fficient": 3347,
      "Ġmildew": 3348,
      "Ġreclaimed": 3349,
      "Ġcalls": 3350,
      "Ġdescribe": 3351,
      "Ġdescription": 3352,
      "Ġdescriptions": 3353,
      "ĠPopular": 3354,
      "Ġversion": 3355,
      "Ġsatisfied": 3356,
      "Ġmotion": 3357,
      "Ġangles": 3358,
      "Ġcommunity": 3359,
      "Ġpattern": 3360,
      "Ġfiling": 3361,
      "Ġfilter": 3362,
      "ĠReport": 3363,
      "Ġwarmth": 3364,
      "Ġcounter": 3365,
      "Ġdepending": 3366,
      "Ġheadboards": 3367,
      "Ġesc": 3368,
      "Ġauthor": 3369,
      "Ġpanels": 3370,
      "Ġbecome": 3371,
      "Ġpads": 3372,
      "Ġdresser": 3373,
      "Ġarchitectural": 3374,
      "Ġperiods": 3375,
      "Ġscale": 3376,
      "Ġcoordinated": 3377,
      "Ġclimate": 3378,
      "Ġiniti": 3379,
      "Ġexciting": 3380,
      "ĠPackage": 3381,
      "ĠDesign": 3382,
      "ĠMeasure": 3383,
      "Ġenhance": 3384,
      "Ġjoints": 3385,
      "century": 3386,
      "ycled": 3387,
      "Ġfollowing": 3388,
      "Ġdrinks": 3389,
      "Ġsloped": 3390,
      "Ġfrequent": 3391,
      "urbish": 3392,
      "Ġseverely": 3393,
      "ĠMulti": 3394,
      "Ġinvestigate": 3395,
      "Metal": 3396,
      "Settings": 3397,
      "colored": 3398,
      "inimalist": 3399,
      "rehensive": 3400,
      "orporate": 3401,
      "Ġwobbly": 3402,
      "Ġdigital": 3403,
      "Ġsecond": 3404,
      "Ġelder": 3405,
      "Ġchallen": 3406,
      "ĠAbsolutely": 3407,
      "ĠDelivery": 3408,
      "ĠDaybeds": 3409,
      "Ġperpendicular": 3410,
      "Ġpurposes": 3411,
      "!!": 3412,
      "%,": 3413,
      "..": 3414,
      "012": 3415,
      "249": 3416,
      "36": 3417,
      "34567": 3418,
      "42": 3419,
      "449": 3420,
      "599": 3421,
      "69": 3422,
      "72": 3423,
      "799": 3424,
      "700": 3425,
      "?!": 3426,
      "App": 3427,
      "Col": 3428,
      "Clear": 3429,
      "De": 3430,
      "Des": 3431,
      "Dine": 3432,
      "Ent": 3433,
      "Flex": 3434,
      "Heritage": 3435,
      "IP": 3436,
      "Leather": 3437,
      "ND": 3438,
      "Our": 3439,
      "Pl": 3440,
      "Per": 3441,
      "Please": 3442,
      "Retreat": 3443,
      "Rental": 3444,
      "Se": 3445,
      "Would": 3446,
      "af": 3447,
      "aw": 3448,
      "afety": 3449,
      "amentation": 3450,
      "bes": 3451,
      "bile": 3452,
      "based": 3453,
      "cing": 3454,
      "case": 3455,
      "des": 3456,
      "dam": 3457,
      "dings": 3458,
      "duty": 3459,
      "eke": 3460,
      "fic": 3461,
      "facing": 3462,
      "hou": 3463,
      "hmed": 3464,
      "iet": 3465,
      "kg": 3466,
      "ler": 3467,
      "lit": 3468,
      "met": 3469,
      "mark": 3470,
      "pr": 3471,
      "pli": 3472,
      "pically": 3473,
      "profile": 3474,
      "spec": 3475,
      "safe": 3476,
      "tes": 3477,
      "tle": 3478,
      "the": 3479,
      "tion": 3480,
      "tili": 3481,
      "ui": 3482,
      "val": 3483,
      "yond": 3484,
      "zz": 3485,
      "Â°": 3486,
      "Ùĥ": 3487,
      "Ùĩ": 3488,
      "ÙĪ": 3489,
      "Ġve": 3490,
      "Ġill": 3491,
      "ĨØ": 3492,
      "Ġage": 3493,
      "Ġaest": 3494,
      "Ġable": 3495,
      "inch": 3496,
      "inue": 3497,
      "rees": 3498,
      "rect": 3499,
      "Ġsil": 3500,
      "Ġsile": 3501,
      "Ġsky": 3502,
      "Ġtan": 3503,
      "Ġtar": 3504,
      "Ġtas": 3505,
      "Ġtiers": 3506,
      "oriz": 3507,
      "orrect": 3508,
      "Ġfen": 3509,
      "Ġfour": 3510,
      "erve": 3511,
      "Ġcust": 3512,
      "Ġcateg": 3513,
      "ators": 3514,
      "aturing": 3515,
      "itan": 3516,
      "Ġwax": 3517,
      "Ġwishli": 3518,
      "Ġwinter": 3519,
      "Ġpul": 3520,
      "Ġpare": 3521,
      "Ġpages": 3522,
      "Ġpink": 3523,
      "ances": 3524,
      "head": 3525,
      "Ġdi": 3526,
      "Ġded": 3527,
      "Ġdish": 3528,
      "Ġdates": 3529,
      "urious": 3530,
      "ionate": 3531,
      "Ġbank": 3532,
      "Ġbody": 3533,
      "edical": 3534,
      "arge": 3535,
      "ures": 3536,
      "road": 3537,
      "Ġtodd": 3538,
      "ĠInd": 3539,
      "ctu": 3540,
      "icle": 3541,
      "icro": 3542,
      "Ġtheater": 3543,
      "ĠWood": 3544,
      "ĠWishlist": 3545,
      "Ġow": 3546,
      "Ġoper": 3547,
      "Ġovers": 3548,
      "Ġinch": 3549,
      "abic": 3550,
      "Ġrepl": 3551,
      "Ġredu": 3552,
      "Ġreason": 3553,
      "Ġreinfor": 3554,
      "ettes": 3555,
      "olitan": 3556,
      "Ġhol": 3557,
      "Ġhist": 3558,
      "Ġhoriz": 3559,
      "Ġstage": 3560,
      "Ġstations": 3561,
      "Ġstability": 3562,
      "Ġstone": 3563,
      "ention": 3564,
      "entory": 3565,
      "Ġlife": 3566,
      "Ġliqu": 3567,
      "Ġlibr": 3568,
      "sect": 3569,
      "velo": 3570,
      "ĠComm": 3571,
      "ĠCamera": 3572,
      "ĠCategories": 3573,
      "ĠFSC": 3574,
      "ĠTy": 3575,
      "ĠTaking": 3576,
      "ĠTactile": 3577,
      "asing": 3578,
      "Ġspring": 3579,
      "Ġsplit": 3580,
      "Ġ16": 3581,
      "Ġlay": 3582,
      "Ġlast": 3583,
      "Ġlog": 3584,
      "Ġlakes": 3585,
      "idential": 3586,
      "Ġchanging": 3587,
      "amp": 3588,
      "ams": 3589,
      "Ġgall": 3590,
      "Ġgrow": 3591,
      "ude": 3592,
      "udy": 3593,
      "ĠAD": 3594,
      "ĠAM": 3595,
      "ĠAND": 3596,
      "ĠAhmed": 3597,
      "ĠOpen": 3598,
      "Ġheart": 3599,
      "cho": 3600,
      "chair": 3601,
      "tered": 3602,
      "Ġmoved": 3603,
      "Ġther": 3604,
      "Ġthrow": 3605,
      "uted": 3606,
      "uttered": 3607,
      "ĠSer": 3608,
      "ĠSand": 3609,
      "ĠSome": 3610,
      "ĠSign": 3611,
      "ĠSide": 3612,
      "ĠStain": 3613,
      "ĠSame": 3614,
      "ĠSpace": 3615,
      "ĠSafe": 3616,
      "ĠSafety": 3617,
      "Ġdelete": 3618,
      "Ġdevelo": 3619,
      "Ġcontain": 3620,
      "Ġconven": 3621,
      "ĠEnd": 3622,
      "adi": 3623,
      "adapt": 3624,
      "ustic": 3625,
      "Ġwelcome": 3626,
      "Ġoffline": 3627,
      "Ġonly": 3628,
      "Ġ40": 3629,
      "Ġ4500": 3630,
      "antial": 3631,
      "Ġru": 3632,
      "Ġrating": 3633,
      "Ġrude": 3634,
      "Ġradi": 3635,
      "Ġexcess": 3636,
      "ried": 3637,
      "rief": 3638,
      "Ġincluded": 3639,
      "Ġfelt": 3640,
      "Ġfeaturing": 3641,
      "apy": 3642,
      "Ġleave": 3643,
      "Ġlevels": 3644,
      "ĠPlease": 3645,
      "ĠPrivacy": 3646,
      "Ġvs": 3647,
      "Ġvoc": 3648,
      "Ġvib": 3649,
      "Ġvene": 3650,
      "Ġbeyond": 3651,
      "Ġsuper": 3652,
      "Ġshape": 3653,
      "Ġshades": 3654,
      "Ġshui": 3655,
      "ĠLay": 3656,
      "ĠLovese": 3657,
      "ĠDet": 3658,
      "ĠDist": 3659,
      "Ġapplic": 3660,
      "Ġposts": 3661,
      "Ġdesigner": 3662,
      "Ġdesigners": 3663,
      "Ġrecycled": 3664,
      "ĠMaster": 3665,
      "ĠRoom": 3666,
      "Ġbedding": 3667,
      "Ġfine": 3668,
      "Ġado": 3669,
      "Ġserving": 3670,
      "Ġprecise": 3671,
      "Ġstyling": 3672,
      "Ġasking": 3673,
      "ĠThen": 3674,
      "Ġteach": 3675,
      "Ġtext": 3676,
      "Ġabroad": 3677,
      "Ġplush": 3678,
      "Ġplacing": 3679,
      "ension": 3680,
      "ference": 3681,
      "Ġaccurate": 3682,
      "rical": 3683,
      "raft": 3684,
      "ishing": 3685,
      "Ġupgrade": 3686,
      "ancel": 3687,
      "Ġqual": 3688,
      "Ġlighter": 3689,
      "Ġdiffic": 3690,
      "Ġbuzz": 3691,
      "Ġadding": 3692,
      "Ġadded": 3693,
      "Ġsoon": 3694,
      "Ġsoph": 3695,
      "Ġperfectly": 3696,
      "ĠBasic": 3697,
      "ĠGather": 3698,
      "ĠGray": 3699,
      "Ġrefused": 3700,
      "Ġrefurbish": 3701,
      "Ġresolution": 3702,
      "Ġcompli": 3703,
      "Ġcomprehensive": 3704,
      "Ġclass": 3705,
      "Ġclutter": 3706,
      "Ġencry": 3707,
      "Ġmanufact": 3708,
      "dered": 3709,
      "ĠReady": 3710,
      "Ġphone": 3711,
      "Ġphys": 3712,
      "Ġproperty": 3713,
      "Ġflu": 3714,
      "Ġblush": 3715,
      "Ġblock": 3716,
      "Ġrepresent": 3717,
      "Ġcontent": 3718,
      "Ġcontinue": 3719,
      "ropolitan": 3720,
      "Ġprofiles": 3721,
      "Ġfixed": 3722,
      "Ġ65": 3723,
      "ĠNatural": 3724,
      "ĠVIP": 3725,
      "Ġstudios": 3726,
      "Ġproduction": 3727,
      "ireless": 3728,
      "Ġpurchases": 3729,
      "Ġpurchasing": 3730,
      "rawer": 3731,
      "Ġfocused": 3732,
      "Ġcharged": 3733,
      "Ġeleven": 3734,
      "Ġelegant": 3735,
      "Ġbuyer": 3736,
      "Ġslim": 3737,
      "Ġsliding": 3738,
      "Ġselling": 3739,
      "Ġemails": 3740,
      "Ġemergency": 3741,
      "Ġmeasures": 3742,
      "Ġsurface": 3743,
      "Ġago": 3744,
      "Ġalong": 3745,
      "Ġaltern": 3746,
      "Ġpeaceful": 3747,
      "Ġdaycare": 3748,
      "Ġcommercial": 3749,
      "ĠPerformance": 3750,
      "Ġtransport": 3751,
      "Ġtransitions": 3752,
      "Ġkits": 3753,
      "Ġprocessed": 3754,
      "Ġbran": 3755,
      "Ġbright": 3756,
      "ĠExclusive": 3757,
      "Ġimmediate": 3758,
      "coated": 3759,
      "Ġremain": 3760,
      "Ġeveryday": 3761,
      "Ġexpert": 3762,
      "ibr": 3763,
      "Ġtelling": 3764,
      "Ġconfidential": 3765,
      "Ġconsidering": 3766,
      "Ġsunken": 3767,
      "control": 3768,
      "ception": 3769,
      "Ġintegr": 3770,
      "Ġexposed": 3771,
      "Ġexpensive": 3772,
      "ĠMoisture": 3773,
      "ĠMobile": 3774,
      "Ġinstallments": 3775,
      "Ġorganize": 3776,
      "ĠOrders": 3777,
      "ĠHeight": 3778,
      "Ġvariety": 3779,
      "Ġaddressed": 3780,
      "Ġsafely": 3781,
      "Ġinterests": 3782,
      "Ġzone": 3783,
      "Ġlearning": 3784,
      "Storage": 3785,
      "Ġinterchange": 3786,
      "ifying": 3787,
      "Ġpromote": 3788,
      "Ġscheme": 3789,
      "Ġsideboard": 3790,
      "ĠAccount": 3791,
      "ĠThanks": 3792,
      "Ġsalesperson": 3793,
      "ngle": 3794,
      "hether": 3795,
      "ĠPlus": 3796,
      "ertaining": 3797,
      "uxurious": 3798,
      "Ġswatches": 3799,
      "Ġtwin": 3800,
      "Ġtwins": 3801,
      "Ġwonderful": 3802,
      "ĠOffering": 3803,
      "Ġwardrobes": 3804,
      "ellow": 3805,
      "Ġcausing": 3806,
      "Ġlaminate": 3807,
      "ĠArrange": 3808,
      "ĠArranging": 3809,
      "ĠArabic": 3810,
      "Ġarmrests": 3811,
      "Ġsecurely": 3812,
      "Ġsatisfaction": 3813,
      "Ġmaybe": 3814,
      "Ġodor": 3815,
      "ĠClassic": 3816,
      "Ġangry": 3817,
      "Ġfrustrated": 3818,
      "Ġcompete": 3819,
      "Ġcalming": 3820,
      "Ġcalcul": 3821,
      "ÙĬØ©": 3822,
      "ĠÙģ": 3823,
      "ĠÙħ": 3824,
      "Ġcras": 3825,
      "Ġweddings": 3826,
      "Ġbreaks": 3827,
      "Ġinventory": 3828,
      "assembly": 3829,
      "ĠPrioritize": 3830,
      "Ġcoastal": 3831,
      "Ġassessment": 3832,
      "Ġbalconies": 3833,
      "Ġjoin": 3834,
      "ymmet": 3835,
      "Ġfunction": 3836,
      "Ġcraft": 3837,
      "Ġports": 3838,
      "Ġincident": 3839,
      "Ġdoesn": 3840,
      "Ġsharp": 3841,
      "pected": 3842,
      "pectful": 3843,
      "Ġentryways": 3844,
      "Help": 3845,
      "elchair": 3846,
      "ĠØ¨": 3847,
      "Ġample": 3848,
      "ontal": 3849,
      "Ġpilling": 3850,
      "Ġpillows": 3851,
      "ĠMostly": 3852,
      "ĠNeutral": 3853,
      "Ġmirrors": 3854,
      "Ġpadding": 3855,
      "Ġintimate": 3856,
      "ĠCoastal": 3857,
      "Ġdocument": 3858,
      "Ġarchitecture": 3859,
      "Ġattach": 3860,
      "Ġscaled": 3861,
      "ĠOrganization": 3862,
      "Ġcatalogs": 3863,
      "Ġactivity": 3864,
      "Ġcash": 3865,
      "Ġcasual": 3866,
      "Ġcooling": 3867,
      "Ġretailers": 3868,
      "Ġhappened": 3869,
      "Ġpersonalized": 3870,
      "Ġrequests": 3871,
      "Ġcafes": 3872,
      "ĠcafÃ©": 3873,
      "ĠØ§ÙĦÙħ": 3874,
      "Ġsources": 3875,
      "Ġmarble": 3876,
      "Ġmustard": 3877,
      "Ġregarding": 3878,
      "Ġhonor": 3879,
      "Ġlounge": 3880,
      "Ġdefective": 3881,
      "ĠLightweight": 3882,
      "ĠBedroom": 3883,
      "Ġcushioning": 3884,
      "Ġsituation": 3885,
      "Ġdownloaded": 3886,
      "89012": 3887,
      "frame": 3888,
      "ique": 3889,
      "setup": 3890,
      "Ġfacilities": 3891,
      "Ġeffect": 3892,
      "Ġelectron": 3893,
      "Ġornamentation": 3894,
      "ĠTemporary": 3895,
      "Ġloveseats": 3896,
      "ĠAcoustic": 3897,
      "Ġnegoti": 3898,
      "ĠSwipe": 3899,
      "ĠEveryday": 3900,
      "Ġappeal": 3901,
      "ĠMaterial": 3902,
      "ĠMemory": 3903,
      "Ġpractical": 3904,
      "Ġbuilding": 3905,
      "ĠBookcase": 3906,
      "Ġdiscrepan": 3907,
      "Ġminimum": 3908,
      "ĠExtended": 3909,
      "Ġtechnicians": 3910,
      "Ġindividual": 3911,
      "Ġapproximate": 3912,
      "Ġsense": 3913,
      "Ġcheaper": 3914,
      "Ġcarts": 3915,
      "Ġcircul": 3916,
      "Ġwheelchair": 3917,
      "Ġmechanisms": 3918,
      "Ġharsh": 3919,
      "ĠTexture": 3920,
      "ĠOttoman": 3921,
      "Ġwelcoming": 3922,
      "Ġsubstantial": 3923,
      "ĠMetropolitan": 3924,
      "Ġallergies": 3925,
      "ĠGrowth": 3926,
      "Ġoverwhelming": 3927,
      "Ġauthorized": 3928,
      "Ġsecondary": 3929,
      "ekend": 3930,
      "houettes": 3931,
      "marked": 3932,
      "print": 3933,
      "specific": 3934,
      "tilize": 3935,
      "Ġillusion": 3936,
      "Ġsilhouettes": 3937,
      "Ġsilent": 3938,
      "Ġtarget": 3939,
      "Ġtask": 3940,
      "Ġfeng": 3941,
      "Ġcustody": 3942,
      "Ġwishlists": 3943,
      "Ġpulled": 3944,
      "Ġparent": 3945,
      "Ġdedicated": 3946,
      "Ġdishes": 3947,
      "Ġtoddler": 3948,
      "Ġoperation": 3949,
      "Ġoversized": 3950,
      "Ġreduce": 3951,
      "Ġreinforced": 3952,
      "Ġhorizontal": 3953,
      "Ġlogin": 3954,
      "Ġlakeside": 3955,
      "Ġgallery": 3956,
      "Ġconvenient": 3957,
      "adaptive": 3958,
      "Ġvocal": 3959,
      "Ġsuperior": 3960,
      "ĠLoveseat": 3961,
      "Ġdifficult": 3962,
      "Ġbuzzer": 3963,
      "Ġsophist": 3964,
      "Ġclasses": 3965,
      "Ġphysical": 3966,
      "controlled": 3967,
      "Ġinterchangeable": 3968,
      "Ġdiscrepancy": 3969,
      "\".": 3970,
      "+)": 3971,
      ".,": 3972,
      ".),": 3973,
      "20": 3974,
      "2000": 3975,
      "48": 3976,
      "50": 3977,
      "59": 3978,
      "80": 3979,
      "800": 3980,
      "Align": 3981,
      "Angle": 3982,
      "Bal": 3983,
      "Bed": 3984,
      "Cl": 3985,
      "Con": 3986,
      "Dining": 3987,
      "ED": 3988,
      "Egypt": 3989,
      "Essential": 3990,
      "Harmon": 3991,
      "In": 3992,
      "Ind": 3993,
      "Max": 3994,
      "Minimalist": 3995,
      "Office": 3996,
      "Sh": 3997,
      "Sum": 3998,
      "Slim": 3999,
      "Sleep": 4000,
      "We": 4001,
      "With": 4002,
      "Wicker": 4003,
      "Weather": 4004,
      "Zen": 4005,
      "aur": 4006,
      "bre": 4007,
      "bial": 4008,
      "ci": 4009,
      "cational": 4010,
      "ched": 4011,
      "certified": 4012,
      "craft": 4013,
      "dge": 4014,
      "dition": 4015,
      "drawer": 4016,
      "eel": 4017,
      "efficient": 4018,
      "fter": 4019,
      "fast": 4020,
      "go": 4021,
      "gu": 4022,
      "gle": 4023,
      "giving": 4024,
      "hides": 4025,
      "ires": 4026,
      "ipl": 4027,
      "lf": 4028,
      "last": 4029,
      "made": 4030,
      "nable": 4031,
      "nually": 4032,
      "oice": 4033,
      "oped": 4034,
      "pro": 4035,
      "put": 4036,
      "pare": 4037,
      "pact": 4038,
      "pite": 4039,
      "poster": 4040,
      "ran": 4041,
      "ract": 4042,
      "rings": 4043,
      "ratch": 4044,
      "sc": 4045,
      "sw": 4046,
      "ser": 4047,
      "side": 4048,
      "ta": 4049,
      "tal": 4050,
      "tar": 4051,
      "tte": 4052,
      "ther": 4053,
      "ties": 4054,
      "use": 4055,
      "ucational": 4056,
      "vest": 4057,
      "vant": 4058,
      "vices": 4059,
      "vated": 4060,
      "wo": 4061,
      "wood": 4062,
      "ware": 4063,
      "where": 4064,
      "ying": 4065,
      "ystem": 4066,
      "Ġ>": 4067,
      "Ġack": 4068,
      "Ġamount": 4069,
      "inci": 4070,
      "rey": 4071,
      "Ġsan": 4072,
      "Ġsing": 4073,
      "Ġsent": 4074,
      "Ġsess": 4075,
      "Ġsign": 4076,
      "Ġtou": 4077,
      "Ġturn": 4078,
      "Ġtab": 4079,
      "Ġtim": 4080,
      "oring": 4081,
      "oric": 4082,
      "Ġfair": 4083,
      "Ġfore": 4084,
      "Ġfade": 4085,
      "Ġcertified": 4086,
      "Ġcorrect": 4087,
      "atility": 4088,
      "athere": 4089,
      "onf": 4090,
      "ons": 4091,
      "itate": 4092,
      "itch": 4093,
      "itality": 4094,
      "itchen": 4095,
      "lets": 4096,
      "leaf": 4097,
      "Ġwatch": 4098,
      "Ġwishlist": 4099,
      "Ġwireless": 4100,
      "Ġwhether": 4101,
      "Ġpar": 4102,
      "Ġpest": 4103,
      "Ġpast": 4104,
      "Ġpush": 4105,
      "Ġpull": 4106,
      "Ġprivacy": 4107,
      "any": 4108,
      "hent": 4109,
      "ingful": 4110,
      "Ġdin": 4111,
      "Ġdom": 4112,
      "Ġdow": 4113,
      "Ġdue": 4114,
      "Ġmas": 4115,
      "Ġmount": 4116,
      "Ġmurphy": 4117,
      "alf": 4118,
      "Ġbay": 4119,
      "Ġbul": 4120,
      "Ġbist": 4121,
      "Ġbath": 4122,
      "Ġbamboo": 4123,
      "Ġbreathable": 4124,
      "ency": 4125,
      "edding": 4126,
      "stable": 4127,
      "sturdy": 4128,
      "stock": 4129,
      "ureth": 4130,
      "Ġtoys": 4131,
      "Ġtotal": 4132,
      "ĠInt": 4133,
      "Ġform": 4134,
      "Ġforgiving": 4135,
      "ĠWall": 4136,
      "ĠWater": 4137,
      "Ġinclusive": 4138,
      "Ġinsect": 4139,
      "Ġinput": 4140,
      "acot": 4141,
      "aby": 4142,
      "Ġred": 4143,
      "Ġresid": 4144,
      "Ġreception": 4145,
      "eturn": 4146,
      "olation": 4147,
      "ism": 4148,
      "Ġher": 4149,
      "Ġhosp": 4150,
      "Ġstable": 4151,
      "Ġstress": 4152,
      "Ġstatement": 4153,
      "Ġstackable": 4154,
      "enter": 4155,
      "Ġlif": 4156,
      "Ġlive": 4157,
      "sell": 4158,
      "Ġnice": 4159,
      "Ġname": 4160,
      "Ġseam": 4161,
      "Ġseem": 4162,
      "Ġelig": 4163,
      "Ġecho": 4164,
      "ĠCas": 4165,
      "ĠCare": 4166,
      "ĠCorn": 4167,
      "Ġorth": 4168,
      "ĠFall": 4169,
      "ĠFriendly": 4170,
      "ĠFarm": 4171,
      "ĠFeel": 4172,
      "ĠTry": 4173,
      "ĠTaupe": 4174,
      "ĠTerr": 4175,
      "ĠTwo": 4176,
      "lla": 4177,
      "Ġspot": 4178,
      "Ġspinal": 4179,
      "Ġ130": 4180,
      "idic": 4181,
      "Ġ200": 4182,
      "Ġult": 4183,
      "pper": 4184,
      "ifiers": 4185,
      "pton": 4186,
      "ĠAI": 4187,
      "ĠAge": 4188,
      "ĠOak": 4189,
      "ĠOnce": 4190,
      "ĠOutdoor": 4191,
      "chairs": 4192,
      "Ġnear": 4193,
      "imicro": 4194,
      "Ġthing": 4195,
      "Ġthough": 4196,
      "Ġthick": 4197,
      "ulation": 4198,
      "utic": 4199,
      "ĠSte": 4200,
      "ĠSub": 4201,
      "ĠSleep": 4202,
      "ĠSystem": 4203,
      "Ġconvenience": 4204,
      "ĠEng": 4205,
      "ĠEdge": 4206,
      "ĠEnable": 4207,
      "adds": 4208,
      "Ġ42": 4209,
      "Ġ45": 4210,
      "Ġisolation": 4211,
      "izers": 4212,
      "Ġrich": 4213,
      "Ġracks": 4214,
      "Ġdesert": 4215,
      "Ġdespite": 4216,
      "Ġpicture": 4217,
      "ries": 4218,
      "Ġannually": 4219,
      "Ġansw": 4220,
      "Ġfront": 4221,
      "Ġlevel": 4222,
      "Ġleaves": 4223,
      "Ġleathere": 4224,
      "Ġvill": 4225,
      "Ġvents": 4226,
      "Ġbeh": 4227,
      "Ġship": 4228,
      "Ġshade": 4229,
      "Ġspecify": 4230,
      "ĠLuxury": 4231,
      "ĠLED": 4232,
      "plain": 4233,
      "ĠDre": 4234,
      "ĠDress": 4235,
      "ĠDeep": 4236,
      "ĠDecor": 4237,
      "iling": 4238,
      "Ġreconf": 4239,
      "ĠUtilize": 4240,
      "Ġarrow": 4241,
      "Ġarranging": 4242,
      "Ġtrund": 4243,
      "Ġtrade": 4244,
      "ĠMix": 4245,
      "ĠMedical": 4246,
      "ĠRes": 4247,
      "ĠRed": 4248,
      "ĠRound": 4249,
      "ĠReturn": 4250,
      "Ġfinder": 4251,
      "Ġserve": 4252,
      "Ġserious": 4253,
      "Ġprinci": 4254,
      "Ġprepare": 4255,
      "Ġasymmet": 4256,
      "Ġrecommended": 4257,
      "ification": 4258,
      "Ġteak": 4259,
      "Ġcovered": 4260,
      "resses": 4261,
      "ression": 4262,
      "ressed": 4263,
      "Ġplants": 4264,
      "iance": 4265,
      "raffic": 4266,
      "Ġspecifications": 4267,
      "ĠThink": 4268,
      "Ġupward": 4269,
      "osure": 4270,
      "Ġdisassembly": 4271,
      "Ġordering": 4272,
      "Ġwhy": 4273,
      "Ġsupports": 4274,
      "Ġquiet": 4275,
      "Ġiftar": 4276,
      "ineAlign": 4277,
      "Ġanytime": 4278,
      "ĠCondition": 4279,
      "Ġallergy": 4280,
      "Ġdifferences": 4281,
      "Ġfibers": 4282,
      "Ġbuff": 4283,
      "ĠBl": 4284,
      "ĠBu": 4285,
      "ĠBree": 4286,
      "ĠBlend": 4287,
      "ĠChoosing": 4288,
      "pection": 4289,
      "Ġcustomized": 4290,
      "ĠIns": 4291,
      "ĠInvest": 4292,
      "ĠGrey": 4293,
      "Ġdamp": 4294,
      "ĠStudio": 4295,
      "ĠStatement": 4296,
      "ĠStackable": 4297,
      "Ġreset": 4298,
      "Ġresistant": 4299,
      "Ġclose": 4300,
      "Ġcloset": 4301,
      "Ġclaw": 4302,
      "uality": 4303,
      "ĠRegular": 4304,
      "Ġproperties": 4305,
      "Ġdiscipl": 4306,
      "Ġflat": 4307,
      "Ġtimeframe": 4308,
      "Ġblind": 4309,
      "Ġhandcraft": 4310,
      "Ġretro": 4311,
      "ship": 4312,
      "Ġinstant": 4313,
      "ĠProcess": 4314,
      "ĠProgram": 4315,
      "ĠNavy": 4316,
      "Ġdesktop": 4317,
      "Ġshowroom": 4318,
      "oga": 4319,
      "Ġreturning": 4320,
      "Ġpurchased": 4321,
      "nowled": 4322,
      "Ġclearing": 4323,
      "Ġgets": 4324,
      "Ġknown": 4325,
      "Ġmetals": 4326,
      "appy": 4327,
      "Ġmeasurement": 4328,
      "Ġalle": 4329,
      "Ġalways": 4330,
      "Ġdaybed": 4331,
      "Ġextensive": 4332,
      "Ġgrain": 4333,
      "Ġcommit": 4334,
      "Ġtransfers": 4335,
      "Ġprofessionals": 4336,
      "Ġprofessionally": 4337,
      "nsizing": 4338,
      "Ġbrush": 4339,
      "Ġenter": 4340,
      "Ġpatios": 4341,
      "Ġremote": 4342,
      "Ġexperts": 4343,
      "Ġcurved": 4344,
      "Ġselecting": 4345,
      "Ġunique": 4346,
      "ived": 4347,
      "Ġexposure": 4348,
      "Ġshoes": 4349,
      "Guest": 4350,
      "Ġsalt": 4351,
      "Ġdecis": 4352,
      "Ġdirections": 4353,
      "Ġlink": 4354,
      "Ġmaximizing": 4355,
      "Ġorganic": 4356,
      "Ġorganizers": 4357,
      "ĠSoft": 4358,
      "Ġbases": 4359,
      "Ġglassware": 4360,
      "Ġedit": 4361,
      "Ġeducational": 4362,
      "Ġhinges": 4363,
      "ĠTrade": 4364,
      "loat": 4365,
      "toned": 4366,
      "Ġwallets": 4367,
      "hetics": 4368,
      "Ġclothes": 4369,
      "Ġkeeping": 4370,
      "Ġload": 4371,
      "Ġsuggestions": 4372,
      "Ġafterno": 4373,
      "efits": 4374,
      "Ġ70": 4375,
      "Ġmember": 4376,
      "Ġhousehol": 4377,
      "ĠAllow": 4378,
      "Ġdepartment": 4379,
      "Ġbrown": 4380,
      "Ġenvironments": 4381,
      "wards": 4382,
      "Ġswapping": 4383,
      "Ġswitch": 4384,
      "enuine": 4385,
      "Ġrequired": 4386,
      "Ġarmchairs": 4387,
      "Ġdistressed": 4388,
      "Ġgathering": 4389,
      "ĠStartSmart": 4390,
      "Ġenvironmental": 4391,
      "Ġsustainability": 4392,
      "iented": 4393,
      "Ġroll": 4394,
      "Ġinside": 4395,
      "Ġinspection": 4396,
      "Ġspeakers": 4397,
      "ĠPoint": 4398,
      "Ġversatility": 4399,
      "Ġmarks": 4400,
      "Ġproblems": 4401,
      "ĠSettings": 4402,
      "Ġangle": 4403,
      "Ġcompetitive": 4404,
      "Ġpaths": 4405,
      "Ġcalled": 4406,
      "Ġadjustment": 4407,
      "Ġkeyword": 4408,
      "Ġdecoration": 4409,
      "ĠQuiz": 4410,
      "Compact": 4411,
      "Ġyoga": 4412,
      "Ġcentered": 4413,
      "Ġcounts": 4414,
      "Ġdeliveries": 4415,
      "ĠMode": 4416,
      "avorites": 4417,
      "Ġentertainment": 4418,
      "Ġauthent": 4419,
      "Ġfunctions": 4420,
      "Ġfootrest": 4421,
      "Ġwrite": 4422,
      "Ġportable": 4423,
      "Ġincre": 4424,
      "Ġincorporate": 4425,
      "Ġhosting": 4426,
      "ĠMaintenance": 4427,
      "ĠGoodby": 4428,
      "ĠExpand": 4429,
      "Ġpromotion": 4430,
      "Ġcombinations": 4431,
      "Ġrelaxing": 4432,
      "Health": 4433,
      "Ġamaz": 4434,
      "Ġpaneling": 4435,
      "alley": 4436,
      "Ġbenefits": 4437,
      "Ġelimin": 4438,
      "tective": 4439,
      "ĠReclin": 4440,
      "ĠProfile": 4441,
      "ĠNew": 4442,
      "Ġbookshelf": 4443,
      "bership": 4444,
      "Ġsqueak": 4445,
      "Ġfavorite": 4446,
      "Ġdressers": 4447,
      "Ġdarker": 4448,
      "Ġrepel": 4449,
      "Ġrepels": 4450,
      "Ġdocuments": 4451,
      "ĠShow": 4452,
      "ĠShould": 4453,
      "ĠElegant": 4454,
      "ĠElevate": 4455,
      "Ġappearance": 4456,
      "Ġadaptable": 4457,
      "Ġclaim": 4458,
      "ĠOrganic": 4459,
      "Ġrecliner": 4460,
      "Ġeasiest": 4461,
      "Ġcoordination": 4462,
      "lined": 4463,
      "Ġmiss": 4464,
      "Ġmissing": 4465,
      "Ġevents": 4466,
      "ĠClearance": 4467,
      "ĠSpineAlign": 4468,
      "Ġexcited": 4469,
      "ĠPackages": 4470,
      "ĠDesk": 4471,
      "Ġmanageable": 4472,
      "Ġorganizational": 4473,
      "Ġresponsibility": 4474,
      "ĠCurrently": 4475,
      "Ġslats": 4476,
      "Ġhonest": 4477,
      "Ġlounging": 4478,
      "Ġdefects": 4479,
      "ĠEnter": 4480,
      "ĠEntertaining": 4481,
      "apeutic": 4482,
      "Ġsuitable": 4483,
      "ĠRefund": 4484,
      "Ġsituations": 4485,
      "Ġfutons": 4486,
      "Ġcracking": 4487,
      "Addresses": 4488,
      "Coastal": 4489,
      "Reading": 4490,
      "Scratch": 4491,
      "Ġtested": 4492,
      "Ġporch": 4493,
      "Ġhouses": 4494,
      "Ġhousing": 4495,
      "ĠAny": 4496,
      "ĠDisc": 4497,
      "ĠDisassemble": 4498,
      "Ġarrival": 4499,
      "Ġtears": 4500,
      "Ġpartnership": 4501,
      "Ġwarping": 4502,
      "Ġflooded": 4503,
      "Ġblanket": 4504,
      "Ġblankets": 4505,
      "Ġexpandable": 4506,
      "Ġpolyureth": 4507,
      "Ġgear": 4508,
      "Ġcribs": 4509,
      "Ġchemical": 4510,
      "Ġwrapping": 4511,
      "Ġmagaz": 4512,
      "Ġbigger": 4513,
      "ĠClick": 4514,
      "Ġprojects": 4515,
      "ĠOverall": 4516,
      "Ġmeaningful": 4517,
      "Ġfeedback": 4518,
      "Ġcovering": 4519,
      "Ġexperiencing": 4520,
      "Ġconfigurations": 4521,
      "Ġvaluable": 4522,
      "Ġescal": 4523,
      "Ġelderly": 4524,
      "Ġchallenge": 4525,
      "Entry": 4526,
      "Plastic": 4527,
      "Ġaesthetic": 4528,
      "Ġcategory": 4529,
      "ctuations": 4530,
      "Ġreplacing": 4531,
      "Ġhistoric": 4532,
      "Ġliquids": 4533,
      "Ġcontainers": 4534,
      "Ġradiant": 4535,
      "Ġexcessive": 4536,
      "Ġveneer": 4537,
      "Ġapplicable": 4538,
      "Ġqualified": 4539,
      "Ġfluctuations": 4540,
      "Ġattachment": 4541,
      "Ġeffectively": 4542,
      "Ġcirculation": 4543,
      "Ġtargeted": 4544,
      "Ġsophisticated": 4545,
      "Egyptian": 4546,
      "Essentials": 4547,
      "Harmony": 4548,
      "Summer": 4549,
      "brella": 4550,
      "lasting": 4551,
      "opedic": 4552,
      "protective": 4553,
      "ranged": 4554,
      "Ġacknowled": 4555,
      "Ġsanit": 4556,
      "Ġsingle": 4557,
      "Ġtouches": 4558,
      "Ġdownsizing": 4559,
      "Ġmasking": 4560,
      "Ġbistro": 4561,
      "ĠInter": 4562,
      "acotta": 4563,
      "Ġresidential": 4564,
      "Ġeligible": 4565,
      "ĠCash": 4566,
      "ĠCorner": 4567,
      "Ġorthopedic": 4568,
      "ĠFarmhouse": 4569,
      "ĠTerracotta": 4570,
      "Ġultimate": 4571,
      "imicrobial": 4572,
      "Ġanswer": 4573,
      "Ġleatherette": 4574,
      "Ġprinciples": 4575,
      "Ġasymmetrical": 4576,
      "ĠBreeze": 4577,
      "Ġdisciplin": 4578,
      "Ġhandcrafted": 4579,
      "Ġafternoon": 4580,
      "Ġkeywords": 4581,
      "Ġauthentic": 4582,
      "ĠGoodbye": 4583,
      "Ġamazing": 4584,
      "ĠRecliner": 4585,
      "ScratchGuard": 4586,
      "Ġpolyurethane": 4587,
      "\",": 4588,
      ".).": 4589,
      "099": 4590,
      "100": 4591,
      "149": 4592,
      "21": 4593,
      "25": 4594,
      "230": 4595,
      "39": 4596,
      "329": 4597,
      "40": 4598,
      "4500": 4599,
      "60": 4600,
      "6500": 4601,
      "899": 4602,
      "8500": 4603,
      "96": 4604,
      "Aug": 4605,
      "Bar": 4606,
      "Baby": 4607,
      "Cin": 4608,
      "Custom": 4609,
      "Cafe": 4610,
      "Cont": 4611,
      "Cancel": 4612,
      "Dust": 4613,
      "Dual": 4614,
      "Ed": 4615,
      "Eco": 4616,
      "For": 4617,
      "First": 4618,
      "Fix": 4619,
      "GB": 4620,
      "Gr": 4621,
      "Grow": 4622,
      "Game": 4623,
      "Glass": 4624,
      "HD": 4625,
      "Hair": 4626,
      "Humidity": 4627,
      "Kid": 4628,
      "Kitchen": 4629,
      "Le": 4630,
      "Light": 4631,
      "Lux": 4632,
      "Lift": 4633,
      "Loft": 4634,
      "Libr": 4635,
      "MS": 4636,
      "Me": 4637,
      "Mod": 4638,
      "Medi": 4639,
      "Master": 4640,
      "OS": 4641,
      "Od": 4642,
      "On": 4643,
      "Po": 4644,
      "Rest": 4645,
      "Rep": 4646,
      "Ramadan": 4647,
      "Room": 4648,
      "Rustic": 4649,
      "Sa": 4650,
      "Sp": 4651,
      "Sun": 4652,
      "Swe": 4653,
      "TV": 4654,
      "Th": 4655,
      "To": 4656,
      "Tr": 4657,
      "Tu": 4658,
      "Tot": 4659,
      "Trend": 4660,
      "View": 4661,
      "What": 4662,
      "Water": 4663,
      "Warm": 4664,
      "Well": 4665,
      "Wishlist": 4666,
      "Winter": 4667,
      "Wedding": 4668,
      "aj": 4669,
      "ale": 4670,
      "aith": 4671,
      "ault": 4672,
      "away": 4673,
      "aled": 4674,
      "aff": 4675,
      "aised": 4676,
      "aPro": 4677,
      "bit": 4678,
      "backs": 4679,
      "browse": 4680,
      "bject": 4681,
      "buted": 4682,
      "could": 4683,
      "cate": 4684,
      "comm": 4685,
      "clect": 4686,
      "ciate": 4687,
      "corporate": 4688,
      "date": 4689,
      "down": 4690,
      "data": 4691,
      "equ": 4692,
      "eaceful": 4693,
      "eometric": 4694,
      "face": 4695,
      "flect": 4696,
      "fting": 4697,
      "fied": 4698,
      "foot": 4699,
      "gl": 4700,
      "gn": 4701,
      "gance": 4702,
      "gible": 4703,
      "gree": 4704,
      "gery": 4705,
      "gling": 4706,
      "garding": 4707,
      "glass": 4708,
      "ggle": 4709,
      "hap": 4710,
      "hile": 4711,
      "humid": 4712,
      "hancing": 4713,
      "hicle": 4714,
      "happy": 4715,
      "iat": 4716,
      "ibly": 4717,
      "ients": 4718,
      "iometric": 4719,
      "iOS": 4720,
      "land": 4721,
      "long": 4722,
      "llent": 4723,
      "labor": 4724,
      "laimed": 4725,
      "min": 4726,
      "main": 4727,
      "more": 4728,
      "move": 4729,
      "mergency": 4730,
      "night": 4731,
      "nav": 4732,
      "nov": 4733,
      "nacks": 4734,
      "nifying": 4735,
      "nmarked": 4736,
      "oke": 4737,
      "oid": 4738,
      "oall": 4739,
      "oating": 4740,
      "oak": 4741,
      "oven": 4742,
      "olid": 4743,
      "oise": 4744,
      "oires": 4745,
      "pre": 4746,
      "ply": 4747,
      "pair": 4748,
      "pens": 4749,
      "pric": 4750,
      "prior": 4751,
      "pco": 4752,
      "pute": 4753,
      "pring": 4754,
      "poall": 4755,
      "rom": 4756,
      "rice": 4757,
      "round": 4758,
      "rans": 4759,
      "shel": 4760,
      "satisf": 4761,
      "solutely": 4762,
      "sApp": 4763,
      "ted": 4764,
      "table": 4765,
      "tles": 4766,
      "traffic": 4767,
      "trans": 4768,
      "uly": 4769,
      "uate": 4770,
      "uck": 4771,
      "upport": 4772,
      "uitive": 4773,
      "uced": 4774,
      "vity": 4775,
      "viate": 4776,
      "varies": 4777,
      "won": 4778,
      "with": 4779,
      "wid": 4780,
      "want": 4781,
      "wide": 4782,
      "well": 4783,
      "xity": 4784,
      "xiety": 4785,
      "xpected": 4786,
      "yze": 4787,
      "yellow": 4788,
      "zure": 4789,
      "¡)": 4790,
      "£Ùĩ": 4791,
      "¨Ø¹": 4792,
      "¨ÙĬØ©": 4793,
      "¬Ø©": 4794,
      "¬ÙĦ": 4795,
      "®Øª": 4796,
      "¯Ùĩ": 4797,
      "±Ø": 4798,
      "±Ùĥ": 4799,
      "²ÙĬØ©": 4800,
      "³Øª": 4801,
      "·ÙĬ": 4802,
      "ºØ©": 4803,
      "Ø´": 4804,
      "ØĮ": 4805,
      "ØŁ": 4806,
      "Ø±Ø": 4807,
      "Ø²ÙĬØ©": 4808,
      "Ø·ÙĬ": 4809,
      "ØºØ©": 4810,
      "ÙĤ": 4811,
      "âī": 4812,
      "Ġ0": 4813,
      "Ġ=": 4814,
      "ĠØ§Ø": 4815,
      "Ġerr": 4816,
      "Ġurg": 4817,
      "ĠiOS": 4818,
      "ĦÙĦ": 4819,
      "ĨØ§": 4820,
      "ĩÙħ": 4821,
      "ĩÙĪ": 4822,
      "ŃØ§Ø": 4823,
      "Ġactions": 4824,
      "Ġahead": 4825,
      "Ġazure": 4826,
      "ina": 4827,
      "inn": 4828,
      "install": 4829,
      "rel": 4830,
      "reet": 4831,
      "reach": 4832,
      "repe": 4833,
      "reciate": 4834,
      "reflect": 4835,
      "Ġson": 4836,
      "Ġshe": 4837,
      "Ġsay": 4838,
      "Ġsad": 4839,
      "Ġsnacks": 4840,
      "Ġtur": 4841,
      "Ġtis": 4842,
      "Ġtour": 4843,
      "Ġtend": 4844,
      "Ġtile": 4845,
      "Ġtag": 4846,
      "Ġtail": 4847,
      "Ġtast": 4848,
      "Ġtrest": 4849,
      "Ġtone": 4850,
      "Ġtactile": 4851,
      "Ġtuck": 4852,
      "orm": 4853,
      "orce": 4854,
      "oration": 4855,
      "orders": 4856,
      "orGuard": 4857,
      "ordered": 4858,
      "oriented": 4859,
      "ought": 4860,
      "Ġfan": 4861,
      "Ġfur": 4862,
      "Ġfar": 4863,
      "Ġfall": 4864,
      "Ġfilt": 4865,
      "Ġfaster": 4866,
      "Ġfaith": 4867,
      "ero": 4868,
      "eral": 4869,
      "erid": 4870,
      "erry": 4871,
      "Ġcle": 4872,
      "Ġcar": 4873,
      "Ġcli": 4874,
      "Ġcru": 4875,
      "Ġcup": 4876,
      "Ġcatch": 4877,
      "Ġcertain": 4878,
      "Ġcub": 4879,
      "Ġcats": 4880,
      "Ġcert": 4881,
      "Ġcoun": 4882,
      "Ġcyc": 4883,
      "atible": 4884,
      "atically": 4885,
      "atGuard": 4886,
      "atives": 4887,
      "atinum": 4888,
      "onor": 4889,
      "oned": 4890,
      "itten": 4891,
      "itness": 4892,
      "ittle": 4893,
      "lence": 4894,
      "length": 4895,
      "Ġwing": 4896,
      "Ġwet": 4897,
      "Ġwai": 4898,
      "Ġwake": 4899,
      "Ġworn": 4900,
      "Ġwakes": 4901,
      "Ġwitness": 4902,
      "Ġpit": 4903,
      "Ġple": 4904,
      "Ġpan": 4905,
      "Ġpen": 4906,
      "Ġply": 4907,
      "Ġput": 4908,
      "Ġpair": 4909,
      "Ġpub": 4910,
      "Ġpower": 4911,
      "Ġpairs": 4912,
      "Ġpresent": 4913,
      "Ġpaired": 4914,
      "anal": 4915,
      "anite": 4916,
      "Ġdign": 4917,
      "Ġdra": 4918,
      "Ġdied": 4919,
      "Ġdiv": 4920,
      "Ġdone": 4921,
      "Ġdensity": 4922,
      "Ġdata": 4923,
      "nder": 4924,
      "ndle": 4925,
      "ndered": 4926,
      "ursing": 4927,
      "urbed": 4928,
      "uracy": 4929,
      "Ġmort": 4930,
      "Ġmood": 4931,
      "Ġmass": 4932,
      "Ġmone": 4933,
      "Ġmuted": 4934,
      "Ġmaj": 4935,
      "aling": 4936,
      "alian": 4937,
      "alty": 4938,
      "alyze": 4939,
      "omfort": 4940,
      "omach": 4941,
      "Ġburn": 4942,
      "Ġboo": 4943,
      "Ġboard": 4944,
      "Ġbins": 4945,
      "Ġburg": 4946,
      "Ġbrief": 4947,
      "Ġbiometric": 4948,
      "Ġbought": 4949,
      "ence": 4950,
      "enches": 4951,
      "enhancing": 4952,
      "edite": 4953,
      "aris": 4954,
      "around": 4955,
      "star": 4956,
      "storage": 4957,
      "step": 4958,
      "store": 4959,
      "stations": 4960,
      "ured": 4961,
      "urer": 4962,
      "living": 4963,
      "libr": 4964,
      "lifting": 4965,
      "roid": 4966,
      "Ġtoggle": 4967,
      "ĠIte": 4968,
      "Ġforget": 4969,
      "Ġforms": 4970,
      "Ġforgot": 4971,
      "ican": 4972,
      "icip": 4973,
      "Ġtheme": 4974,
      "ĠWork": 4975,
      "ĠWind": 4976,
      "ĠWhere": 4977,
      "ĠWishing": 4978,
      "Ġoth": 4979,
      "Ġobject": 4980,
      "Ġopens": 4981,
      "Ġinher": 4982,
      "Ġinners": 4983,
      "aced": 4984,
      "abel": 4985,
      "abilities": 4986,
      "Ġrele": 4987,
      "Ġrear": 4988,
      "Ġreassemble": 4989,
      "Ġresell": 4990,
      "Ġrewards": 4991,
      "Ġrenov": 4992,
      "Ġreinstall": 4993,
      "Ġrendered": 4994,
      "eters": 4995,
      "etter": 4996,
      "iss": 4997,
      "ising": 4998,
      "ished": 4999
    },
    "merges": [
      [
        "Ġ",
        "a"
      ],
      [
        "i",
        "n"
      ],
      [
        "r",
        "e"
      ],
      [
        "Ġ",
        "s"
      ],
      [
        "Ġ",
        "t"
      ],
      [
        "o",
        "r"
      ],
      [
        "o",
        "u"
      ],
      [
        "Ġ",
        "f"
      ],
      [
        "e",
        "r"
      ],
      [
        "Ġ",
        "c"
      ],
      [
        "a",
        "t"
      ],
      [
        "o",
        "n"
      ],
      [
        "i",
        "t"
      ],
      [
        "e",
        "s"
      ],
      [
        "l",
        "e"
      ],
      [
        "Ġ",
        "w"
      ],
      [
        "Ġ",
        "p"
      ],
      [
        "a",
        "n"
      ],
      [
        "h",
        "e"
      ],
      [
        "in",
        "g"
      ],
      [
        "Ġ",
        "d"
      ],
      [
        "n",
        "d"
      ],
      [
        "u",
        "r"
      ],
      [
        "y",
        "ou"
      ],
      [
        "Ġ",
        "m"
      ],
      [
        "a",
        "l"
      ],
      [
        "Ġ",
        "you"
      ],
      [
        "i",
        "on"
      ],
      [
        "o",
        "m"
      ],
      [
        "Ġ",
        "b"
      ],
      [
        "e",
        "n"
      ],
      [
        "e",
        "d"
      ],
      [
        "a",
        "r"
      ],
      [
        "s",
        "t"
      ],
      [
        "u",
        "re"
      ],
      [
        "l",
        "i"
      ],
      [
        "r",
        "o"
      ],
      [
        "Ġt",
        "o"
      ],
      [
        "Ġ",
        "I"
      ],
      [
        "Ġa",
        "nd"
      ],
      [
        "c",
        "t"
      ],
      [
        "Ġf",
        "or"
      ],
      [
        "i",
        "c"
      ],
      [
        "Ġt",
        "he"
      ],
      [
        "ur",
        "n"
      ],
      [
        "Ġ",
        "W"
      ],
      [
        "Ġ",
        "o"
      ],
      [
        "Ġ",
        "in"
      ],
      [
        "Ġf",
        "urn"
      ],
      [
        "it",
        "ure"
      ],
      [
        "a",
        "c"
      ],
      [
        "a",
        "b"
      ],
      [
        "Ġfurn",
        "iture"
      ],
      [
        "Ġ",
        "re"
      ],
      [
        "it",
        "h"
      ],
      [
        "e",
        "t"
      ],
      [
        "Ġw",
        "ith"
      ],
      [
        "o",
        "l"
      ],
      [
        "i",
        "s"
      ],
      [
        "Ġ",
        "h"
      ],
      [
        "Ġs",
        "t"
      ],
      [
        "h",
        "at"
      ],
      [
        "en",
        "t"
      ],
      [
        "l",
        "y"
      ],
      [
        "Ġ",
        "li"
      ],
      [
        "s",
        "e"
      ],
      [
        "o",
        "o"
      ],
      [
        "Ġ",
        "n"
      ],
      [
        "g",
        "e"
      ],
      [
        "Ġs",
        "e"
      ],
      [
        "Ġ",
        "e"
      ],
      [
        "l",
        "d"
      ],
      [
        "v",
        "e"
      ],
      [
        "k",
        "e"
      ],
      [
        "ou",
        "r"
      ],
      [
        "ion",
        "s"
      ],
      [
        "Ġo",
        "f"
      ],
      [
        "e",
        "c"
      ],
      [
        "Ġ",
        "C"
      ],
      [
        "Ġ",
        "or"
      ],
      [
        "o",
        "w"
      ],
      [
        "Ġ",
        "F"
      ],
      [
        "Ġ",
        "T"
      ],
      [
        "Ġyou",
        "r"
      ],
      [
        "ab",
        "le"
      ],
      [
        "a",
        "s"
      ],
      [
        "l",
        "l"
      ],
      [
        "i",
        "g"
      ],
      [
        "v",
        "er"
      ],
      [
        "Ġs",
        "p"
      ],
      [
        "ou",
        "ld"
      ],
      [
        "Ġ",
        "1"
      ],
      [
        "Ġ",
        "l"
      ],
      [
        "i",
        "d"
      ],
      [
        "Ġ",
        "2"
      ],
      [
        "Ġ",
        "our"
      ],
      [
        "Ġ",
        "3"
      ],
      [
        "ct",
        "ion"
      ],
      [
        "Ġp",
        "ro"
      ],
      [
        "Ġc",
        "ol"
      ],
      [
        "Ġ",
        "Ġ"
      ],
      [
        "Ġli",
        "ke"
      ],
      [
        "m",
        "ent"
      ],
      [
        "Ġ",
        "u"
      ],
      [
        "a",
        "i"
      ],
      [
        "p",
        "p"
      ],
      [
        "Ġc",
        "an"
      ],
      [
        "Ġ",
        "'"
      ],
      [
        "Ġc",
        "h"
      ],
      [
        "a",
        "m"
      ],
      [
        "i",
        "f"
      ],
      [
        "p",
        "t"
      ],
      [
        "a",
        "y"
      ],
      [
        "Ġ",
        "g"
      ],
      [
        "u",
        "d"
      ],
      [
        "Ġ",
        "A"
      ],
      [
        "Ġ",
        "O"
      ],
      [
        "a",
        "ge"
      ],
      [
        "at",
        "e"
      ],
      [
        "ac",
        "e"
      ],
      [
        "'",
        "s"
      ],
      [
        "Ġ",
        "he"
      ],
      [
        "c",
        "h"
      ],
      [
        "Ġn",
        "e"
      ],
      [
        "i",
        "m"
      ],
      [
        "ĠF",
        "or"
      ],
      [
        "t",
        "e"
      ],
      [
        "Ġm",
        "o"
      ],
      [
        "Ġd",
        "o"
      ],
      [
        "h",
        "t"
      ],
      [
        "Ġt",
        "h"
      ],
      [
        "f",
        "e"
      ],
      [
        "u",
        "l"
      ],
      [
        "u",
        "t"
      ],
      [
        "Ġ",
        "S"
      ],
      [
        "Ġc",
        "om"
      ],
      [
        "ro",
        "om"
      ],
      [
        "Ġ",
        "H"
      ],
      [
        "Ġt",
        "hat"
      ],
      [
        "c",
        "e"
      ],
      [
        "Ġd",
        "e"
      ],
      [
        "c",
        "l"
      ],
      [
        "ĠW",
        "ould"
      ],
      [
        "Ġc",
        "on"
      ],
      [
        "i",
        "al"
      ],
      [
        "Ġ",
        "E"
      ],
      [
        "or",
        "t"
      ],
      [
        "es",
        "t"
      ],
      [
        "a",
        "d"
      ],
      [
        "a",
        "in"
      ],
      [
        "n",
        "t"
      ],
      [
        "ĠW",
        "hat"
      ],
      [
        "ĠO",
        "ur"
      ],
      [
        "er",
        "s"
      ],
      [
        "o",
        "f"
      ],
      [
        "ar",
        "t"
      ],
      [
        "u",
        "st"
      ],
      [
        "es",
        "s"
      ],
      [
        "e",
        "nd"
      ],
      [
        "Ġcol",
        "le"
      ],
      [
        "Ġw",
        "e"
      ],
      [
        "cl",
        "ud"
      ],
      [
        "o",
        "t"
      ],
      [
        "Ġa",
        "re"
      ],
      [
        "at",
        "ion"
      ],
      [
        "Ġof",
        "f"
      ],
      [
        "Ġ",
        "on"
      ],
      [
        "Ġ",
        "it"
      ],
      [
        "ĠW",
        "e"
      ],
      [
        "e",
        "m"
      ],
      [
        "Ġ",
        "("
      ],
      [
        "Ġ",
        "4"
      ],
      [
        "Ġ",
        "is"
      ],
      [
        "an",
        "t"
      ],
      [
        "Ġne",
        "ed"
      ],
      [
        "Ġm",
        "at"
      ],
      [
        "i",
        "z"
      ],
      [
        "ver",
        "y"
      ],
      [
        "Ġ",
        "r"
      ],
      [
        "Ġ",
        "room"
      ],
      [
        "Ġ",
        "Y"
      ],
      [
        "Ġcolle",
        "ction"
      ],
      [
        "Ġd",
        "es"
      ],
      [
        "i",
        "st"
      ],
      [
        "re",
        "s"
      ],
      [
        "Ġp",
        "i"
      ],
      [
        "Ġe",
        "x"
      ],
      [
        "ou",
        "t"
      ],
      [
        "ĠH",
        "ow"
      ],
      [
        "r",
        "i"
      ],
      [
        "a",
        "ve"
      ],
      [
        "Ġin",
        "clud"
      ],
      [
        "ai",
        "r"
      ],
      [
        "Ġm",
        "e"
      ],
      [
        "al",
        "l"
      ],
      [
        "Ġpi",
        "ec"
      ],
      [
        "an",
        "d"
      ],
      [
        "l",
        "p"
      ],
      [
        "it",
        "y"
      ],
      [
        "Ġf",
        "e"
      ],
      [
        "Ġhe",
        "lp"
      ],
      [
        "d",
        "er"
      ],
      [
        "ic",
        "e"
      ],
      [
        "Ġo",
        "pt"
      ],
      [
        "Ġa",
        "n"
      ],
      [
        "ig",
        "ht"
      ],
      [
        "a",
        "p"
      ],
      [
        "Ġf",
        "r"
      ],
      [
        "oo",
        "k"
      ],
      [
        "Ġ",
        "le"
      ],
      [
        "om",
        "e"
      ],
      [
        "oo",
        "d"
      ],
      [
        "Ġpiec",
        "es"
      ],
      [
        "Ġ",
        "P"
      ],
      [
        "Ġde",
        "li"
      ],
      [
        "Ġ",
        "v"
      ],
      [
        "'",
        "m"
      ],
      [
        "u",
        "s"
      ],
      [
        "ac",
        "k"
      ],
      [
        "Ġh",
        "ave"
      ],
      [
        "Ġb",
        "e"
      ],
      [
        "Ġs",
        "u"
      ],
      [
        "Ġsp",
        "ace"
      ],
      [
        "Ġopt",
        "ions"
      ],
      [
        "Ġs",
        "h"
      ],
      [
        "Ġsp",
        "ec"
      ],
      [
        "ĠĠ",
        "Ċ"
      ],
      [
        "Ġ",
        "L"
      ],
      [
        "le",
        "an"
      ],
      [
        "or",
        "age"
      ],
      [
        "p",
        "l"
      ],
      [
        "v",
        "ing"
      ],
      [
        "ig",
        "n"
      ],
      [
        "Ġdeli",
        "very"
      ],
      [
        "h",
        "er"
      ],
      [
        "Ġ",
        "D"
      ],
      [
        "Ġs",
        "of"
      ],
      [
        "q",
        "u"
      ],
      [
        "Ġa",
        "pp"
      ],
      [
        "i",
        "ve"
      ],
      [
        "id",
        "e"
      ],
      [
        "i",
        "l"
      ],
      [
        "Ġp",
        "o"
      ],
      [
        "Ġse",
        "e"
      ],
      [
        "Ġdes",
        "ign"
      ],
      [
        "i",
        "r"
      ],
      [
        "at",
        "ing"
      ],
      [
        "Ġre",
        "c"
      ],
      [
        "Ġ",
        "U"
      ],
      [
        "Ġa",
        "r"
      ],
      [
        "Ġst",
        "orage"
      ],
      [
        "Ġoff",
        "er"
      ],
      [
        "Ġt",
        "r"
      ],
      [
        "Ġ",
        "M"
      ],
      [
        "Ġ",
        "R"
      ],
      [
        "Ġb",
        "ed"
      ],
      [
        "Ġfr",
        "om"
      ],
      [
        "Ġit",
        "em"
      ],
      [
        "Ġb",
        "est"
      ],
      [
        "ar",
        "d"
      ],
      [
        "c",
        "c"
      ],
      [
        "an",
        "ge"
      ],
      [
        "oo",
        "se"
      ],
      [
        "Ġcol",
        "or"
      ],
      [
        "p",
        "le"
      ],
      [
        "Ġf",
        "in"
      ],
      [
        "Ġc",
        "re"
      ],
      [
        "at",
        "ure"
      ],
      [
        "e",
        "p"
      ],
      [
        "Ġa",
        "d"
      ],
      [
        "ion",
        "al"
      ],
      [
        "Ġch",
        "air"
      ],
      [
        "Ġa",
        "t"
      ],
      [
        "Ġs",
        "er"
      ],
      [
        "om",
        "m"
      ],
      [
        "l",
        "s"
      ],
      [
        "Ġp",
        "r"
      ],
      [
        "l",
        "es"
      ],
      [
        "er",
        "ial"
      ],
      [
        "ul",
        "ar"
      ],
      [
        "9",
        "9"
      ],
      [
        "Ġm",
        "y"
      ],
      [
        "Ġp",
        "re"
      ],
      [
        "Ġmat",
        "erial"
      ],
      [
        "o",
        "or"
      ],
      [
        "Ġst",
        "y"
      ],
      [
        "Ġa",
        "s"
      ],
      [
        "a",
        "re"
      ],
      [
        "ĠT",
        "he"
      ],
      [
        "u",
        "m"
      ],
      [
        "Ġfe",
        "ature"
      ],
      [
        "Ġ",
        "5"
      ],
      [
        "Ġrec",
        "omm"
      ],
      [
        "Ġrecomm",
        "end"
      ],
      [
        "0",
        "0"
      ],
      [
        "b",
        "le"
      ],
      [
        "f",
        "ort"
      ],
      [
        "if",
        "ic"
      ],
      [
        "t",
        "er"
      ],
      [
        "Ġc",
        "lean"
      ],
      [
        "iz",
        "e"
      ],
      [
        "or",
        "k"
      ],
      [
        "Ġser",
        "v"
      ],
      [
        "â",
        "Ģ"
      ],
      [
        "Ġt",
        "e"
      ],
      [
        "Ġp",
        "er"
      ],
      [
        "fe",
        "ct"
      ],
      [
        "Ġinclud",
        "es"
      ],
      [
        "Ġa",
        "b"
      ],
      [
        "Ġc",
        "o"
      ],
      [
        "res",
        "s"
      ],
      [
        "Ġp",
        "l"
      ],
      [
        "t",
        "h"
      ],
      [
        "i",
        "le"
      ],
      [
        "in",
        "ing"
      ],
      [
        "Ġw",
        "ork"
      ],
      [
        "Ġpro",
        "te"
      ],
      [
        "Ġmaterial",
        "s"
      ],
      [
        "g",
        "ht"
      ],
      [
        "Ġw",
        "ood"
      ],
      [
        "Ġab",
        "out"
      ],
      [
        "ĠU",
        "se"
      ],
      [
        "p",
        "er"
      ],
      [
        "at",
        "her"
      ],
      [
        "ĠY",
        "es"
      ],
      [
        "Ġitem",
        "s"
      ],
      [
        "en",
        "s"
      ],
      [
        "ic",
        "es"
      ],
      [
        "g",
        "y"
      ],
      [
        "i",
        "an"
      ],
      [
        "Ġl",
        "ook"
      ],
      [
        "Ġ",
        "k"
      ],
      [
        "a",
        "ct"
      ],
      [
        "ol",
        "ut"
      ],
      [
        "fe",
        "re"
      ],
      [
        "Ġcre",
        "ate"
      ],
      [
        "âĢ",
        "¢"
      ],
      [
        "g",
        "h"
      ],
      [
        "Ġa",
        "cc"
      ],
      [
        "ou",
        "gh"
      ],
      [
        "c",
        "k"
      ],
      [
        "r",
        "ic"
      ],
      [
        "Ġ",
        "$"
      ],
      [
        "Ġth",
        "is"
      ],
      [
        "r",
        "a"
      ],
      [
        "is",
        "h"
      ],
      [
        "ment",
        "s"
      ],
      [
        "Ġt",
        "able"
      ],
      [
        "pp",
        "ort"
      ],
      [
        "Ġspec",
        "ific"
      ],
      [
        "o",
        "re"
      ],
      [
        "ĠT",
        "h"
      ],
      [
        "Ġu",
        "p"
      ],
      [
        "Ġse",
        "ating"
      ],
      [
        "o",
        "s"
      ],
      [
        "Ġs",
        "olut"
      ],
      [
        "Ġd",
        "is"
      ],
      [
        "Ġd",
        "ining"
      ],
      [
        "Ġsof",
        "a"
      ],
      [
        "a",
        "g"
      ],
      [
        "Ġor",
        "der"
      ],
      [
        "'",
        "ll"
      ],
      [
        "a",
        "se"
      ],
      [
        "Ġw",
        "h"
      ],
      [
        "Ġsu",
        "pport"
      ],
      [
        "w",
        "ap"
      ],
      [
        "Ġs",
        "et"
      ],
      [
        "ou",
        "nt"
      ],
      [
        "Ġst",
        "art"
      ],
      [
        "ĠF",
        "urn"
      ],
      [
        "ĠY",
        "ou"
      ],
      [
        "gy",
        "pt"
      ],
      [
        "an",
        "ce"
      ],
      [
        "Ġh",
        "ome"
      ],
      [
        "ai",
        "l"
      ],
      [
        "Ġ",
        "qu"
      ],
      [
        "Ġcom",
        "fort"
      ],
      [
        "Ġsolut",
        "ions"
      ],
      [
        "Ġu",
        "s"
      ],
      [
        "ĠE",
        "gypt"
      ],
      [
        "Ġ(",
        "$"
      ],
      [
        "j",
        "ust"
      ],
      [
        "Ġ",
        "if"
      ],
      [
        "ri",
        "end"
      ],
      [
        "re",
        "at"
      ],
      [
        "al",
        "ly"
      ],
      [
        "re",
        "d"
      ],
      [
        "Ġs",
        "m"
      ],
      [
        "Ġd",
        "ur"
      ],
      [
        "Ġb",
        "ro"
      ],
      [
        "ch",
        "es"
      ],
      [
        "'",
        "re"
      ],
      [
        "a",
        "st"
      ],
      [
        "it",
        "ional"
      ],
      [
        "ĠT",
        "o"
      ],
      [
        "Ġchair",
        "s"
      ],
      [
        "f",
        "or"
      ],
      [
        "ab",
        "les"
      ],
      [
        "Ġprote",
        "ct"
      ],
      [
        "S",
        "wap"
      ],
      [
        "i",
        "Swap"
      ],
      [
        "in",
        "e"
      ],
      [
        "ver",
        "s"
      ],
      [
        "ist",
        "ant"
      ],
      [
        "pl",
        "ace"
      ],
      [
        "Ġsty",
        "le"
      ],
      [
        "Ġfeature",
        "s"
      ],
      [
        "ĠFurn",
        "iSwap"
      ],
      [
        "i",
        "ll"
      ],
      [
        "ou",
        "nd"
      ],
      [
        "an",
        "s"
      ],
      [
        "Ġu",
        "nd"
      ],
      [
        "Ġch",
        "oose"
      ],
      [
        "o",
        "c"
      ],
      [
        "r",
        "y"
      ],
      [
        "ab",
        "ric"
      ],
      [
        "Ġli",
        "ght"
      ],
      [
        "Ġs",
        "c"
      ],
      [
        "Ġu",
        "se"
      ],
      [
        "i",
        "es"
      ],
      [
        "Ġw",
        "ay"
      ],
      [
        "Ġd",
        "if"
      ],
      [
        "ac",
        "es"
      ],
      [
        "Ġan",
        "y"
      ],
      [
        "riend",
        "ly"
      ],
      [
        "d",
        "oor"
      ],
      [
        "u",
        "n"
      ],
      [
        "Ġf",
        "abric"
      ],
      [
        "he",
        "n"
      ],
      [
        "ĠC",
        "on"
      ],
      [
        "ust",
        "om"
      ],
      [
        "res",
        "istant"
      ],
      [
        "ĠEgypt",
        "ian"
      ],
      [
        "Ġund",
        "er"
      ],
      [
        "u",
        "e"
      ],
      [
        "Ġa",
        "ll"
      ],
      [
        "Ġspec",
        "ial"
      ],
      [
        "i",
        "ble"
      ],
      [
        "s",
        "id"
      ],
      [
        "Ġdif",
        "fere"
      ],
      [
        "a",
        "k"
      ],
      [
        "Ġt",
        "ables"
      ],
      [
        "Ġf",
        "i"
      ],
      [
        "at",
        "ions"
      ],
      [
        "he",
        "ck"
      ],
      [
        "Ġb",
        "u"
      ],
      [
        "Ġli",
        "ving"
      ],
      [
        "der",
        "n"
      ],
      [
        "Ġad",
        "d"
      ],
      [
        "Ġcolor",
        "s"
      ],
      [
        ")",
        ","
      ],
      [
        "Ġs",
        "o"
      ],
      [
        "Ġw",
        "ould"
      ],
      [
        "ac",
        "h"
      ],
      [
        "Ġper",
        "fect"
      ],
      [
        "sid",
        "er"
      ],
      [
        "f",
        "riendly"
      ],
      [
        "r",
        "ange"
      ],
      [
        "ar",
        "y"
      ],
      [
        "ĠĠĊ",
        "ĠĠ"
      ],
      [
        "g",
        "r"
      ],
      [
        "es",
        "e"
      ],
      [
        "ls",
        "o"
      ],
      [
        "k",
        "en"
      ],
      [
        "ĠD",
        "o"
      ],
      [
        "Ġ",
        "B"
      ],
      [
        "ĠC",
        "h"
      ],
      [
        "p",
        "e"
      ],
      [
        "in",
        "t"
      ],
      [
        "re",
        "e"
      ],
      [
        "ing",
        "s"
      ],
      [
        "im",
        "e"
      ],
      [
        "d",
        "u"
      ],
      [
        "f",
        "er"
      ],
      [
        "Ġc",
        "ustom"
      ],
      [
        "ĠI",
        "n"
      ],
      [
        "ul",
        "t"
      ],
      [
        "a",
        "v"
      ],
      [
        "a",
        "ke"
      ],
      [
        "t",
        "ain"
      ],
      [
        "ction",
        "al"
      ],
      [
        "ot",
        "h"
      ],
      [
        "Ġsm",
        "all"
      ],
      [
        "Ġbro",
        "ken"
      ],
      [
        "Ġ",
        "G"
      ],
      [
        "Ġ",
        "out"
      ],
      [
        "Ġa",
        "p"
      ],
      [
        "st",
        "and"
      ],
      [
        "r",
        "ough"
      ],
      [
        "Ġd",
        "am"
      ],
      [
        "Ġm",
        "et"
      ],
      [
        "Ġb",
        "ut"
      ],
      [
        "Ġre",
        "f"
      ],
      [
        "Ġth",
        "rough"
      ],
      [
        "Ġfin",
        "d"
      ],
      [
        "o",
        "d"
      ],
      [
        "le",
        "ct"
      ],
      [
        "he",
        "l"
      ],
      [
        "as",
        "y"
      ],
      [
        "Ġar",
        "range"
      ],
      [
        "Ġs",
        "ome"
      ],
      [
        "Ġp",
        "art"
      ],
      [
        "Ġmo",
        "re"
      ],
      [
        "ĠS",
        "t"
      ],
      [
        "Ġserv",
        "ices"
      ],
      [
        "w",
        "ay"
      ],
      [
        "Ġ",
        "âĢ¢"
      ],
      [
        "Ġre",
        "s"
      ],
      [
        "Ġcom",
        "ple"
      ],
      [
        "'",
        "t"
      ],
      [
        "i",
        "e"
      ],
      [
        "Ġ",
        "im"
      ],
      [
        "ĠA",
        "d"
      ],
      [
        "Ġcom",
        "p"
      ],
      [
        "ĠL",
        "et"
      ],
      [
        "it",
        "e"
      ],
      [
        "Ġdesign",
        "s"
      ],
      [
        "u",
        "g"
      ],
      [
        "Ġw",
        "ar"
      ],
      [
        "Ġb",
        "et"
      ],
      [
        "Ġt",
        "y"
      ],
      [
        "Ġc",
        "l"
      ],
      [
        "Ġb",
        "ack"
      ],
      [
        "ic",
        "h"
      ],
      [
        "Ġus",
        "ed"
      ],
      [
        "Ġdiffere",
        "nt"
      ],
      [
        "Ġ",
        "en"
      ],
      [
        "Ġm",
        "an"
      ],
      [
        "as",
        "s"
      ],
      [
        "il",
        "ity"
      ],
      [
        "Ġpr",
        "ice"
      ],
      [
        "for",
        "m"
      ],
      [
        "Ġare",
        "a"
      ],
      [
        "ĠCh",
        "oose"
      ],
      [
        "d",
        "e"
      ],
      [
        "on",
        "g"
      ],
      [
        "ed",
        "i"
      ],
      [
        "ic",
        "k"
      ],
      [
        "Ġserv",
        "ice"
      ],
      [
        "i",
        "ly"
      ],
      [
        "u",
        "al"
      ],
      [
        "ro",
        "w"
      ],
      [
        "ĠR",
        "e"
      ],
      [
        "Ġfin",
        "ish"
      ],
      [
        "g",
        "ular"
      ],
      [
        "Ġs",
        "a"
      ],
      [
        "Ġp",
        "h"
      ],
      [
        "ct",
        "ions"
      ],
      [
        "Ġpro",
        "per"
      ],
      [
        "Ġmo",
        "st"
      ],
      [
        "Ġte",
        "am"
      ],
      [
        "Ġdis",
        "c"
      ],
      [
        "v",
        "ail"
      ],
      [
        "Ġf",
        "l"
      ],
      [
        "Ġw",
        "hat"
      ],
      [
        "Ġp",
        "ay"
      ],
      [
        "g",
        "et"
      ],
      [
        "Ġt",
        "ime"
      ],
      [
        "Ġc",
        "heck"
      ],
      [
        "Ġb",
        "l"
      ],
      [
        "Ġre",
        "p"
      ],
      [
        "Ġpro",
        "v"
      ],
      [
        "Ġg",
        "u"
      ],
      [
        "Ġne",
        "w"
      ],
      [
        "Ġcon",
        "t"
      ],
      [
        "Ġsof",
        "as"
      ],
      [
        "vail",
        "able"
      ],
      [
        "s",
        "s"
      ],
      [
        "u",
        "nd"
      ],
      [
        "Ġm",
        "ain"
      ],
      [
        "Ġin",
        "ches"
      ],
      [
        "Ġh",
        "and"
      ],
      [
        "Ġhe",
        "ight"
      ],
      [
        "iz",
        "ed"
      ],
      [
        "Ġr",
        "ight"
      ],
      [
        "ur",
        "al"
      ],
      [
        "se",
        "m"
      ],
      [
        "Ġpre",
        "fer"
      ],
      [
        "Ġlook",
        "ing"
      ],
      [
        "ĠTh",
        "is"
      ],
      [
        "Ġstart",
        "ing"
      ],
      [
        "e",
        "en"
      ],
      [
        "Ġd",
        "et"
      ],
      [
        "Ġb",
        "y"
      ],
      [
        "Ġre",
        "t"
      ],
      [
        "Ġmo",
        "dern"
      ],
      [
        "Ġunder",
        "stand"
      ],
      [
        "ie",
        "w"
      ],
      [
        "i",
        "p"
      ],
      [
        "Ġs",
        "hel"
      ],
      [
        "at",
        "er"
      ],
      [
        "it",
        "ion"
      ],
      [
        "ro",
        "p"
      ],
      [
        "ĠC",
        "an"
      ],
      [
        "Ġpro",
        "f"
      ],
      [
        "just",
        "able"
      ],
      [
        "i",
        "ld"
      ],
      [
        "s",
        "h"
      ],
      [
        "Ġs",
        "le"
      ],
      [
        "at",
        "ed"
      ],
      [
        "Ġin",
        "st"
      ],
      [
        "G",
        "P"
      ],
      [
        "t",
        "o"
      ],
      [
        "v",
        "es"
      ],
      [
        "Ġa",
        "lso"
      ],
      [
        "le",
        "ar"
      ],
      [
        "Ġw",
        "ant"
      ],
      [
        "Ġp",
        "et"
      ],
      [
        "Ġm",
        "in"
      ],
      [
        "ĠC",
        "ould"
      ],
      [
        "ĠE",
        "GP"
      ],
      [
        "ad",
        "e"
      ],
      [
        "ad",
        "itional"
      ],
      [
        "Ġr",
        "ug"
      ],
      [
        "Ġinclud",
        "ing"
      ],
      [
        "Ġfi",
        "x"
      ],
      [
        "Ġdam",
        "age"
      ],
      [
        "Ġph",
        "ot"
      ],
      [
        "Ġw",
        "ill"
      ],
      [
        "Ġn",
        "ot"
      ],
      [
        "Ġmat",
        "ch"
      ],
      [
        "Ġinclud",
        "e"
      ],
      [
        "ĠP",
        "ro"
      ],
      [
        "us",
        "h"
      ],
      [
        "t",
        "ress"
      ],
      [
        "v",
        "en"
      ],
      [
        "Ġ",
        "6"
      ],
      [
        "Ġ",
        "N"
      ],
      [
        "Ġ",
        "V"
      ],
      [
        "Ġa",
        "vailable"
      ],
      [
        "le",
        "d"
      ],
      [
        "Ġp",
        "ur"
      ],
      [
        "Ġon",
        "e"
      ],
      [
        "Ġdes",
        "k"
      ],
      [
        "Ġdesign",
        "ed"
      ],
      [
        "r",
        "u"
      ],
      [
        "r",
        "ant"
      ],
      [
        "ou",
        "s"
      ],
      [
        "Ġw",
        "all"
      ],
      [
        "Ġst",
        "ud"
      ],
      [
        "ĠC",
        "om"
      ],
      [
        "Ġpro",
        "du"
      ],
      [
        "Ġdo",
        "or"
      ],
      [
        "Ġle",
        "ather"
      ],
      [
        "ĠCon",
        "sider"
      ],
      [
        "Ġhand",
        "le"
      ],
      [
        "b",
        "ly"
      ],
      [
        "g",
        "ing"
      ],
      [
        "Ġp",
        "ack"
      ],
      [
        "Ġneed",
        "s"
      ],
      [
        "Ġmat",
        "tress"
      ],
      [
        "Ġsh",
        "ow"
      ],
      [
        "Ġbed",
        "room"
      ],
      [
        "Ġref",
        "und"
      ],
      [
        "Ġcomple",
        "te"
      ],
      [
        "Ġpay",
        "ment"
      ],
      [
        "Ġs",
        "ize"
      ],
      [
        "Ġsp",
        "aces"
      ],
      [
        "Ġl",
        "ong"
      ],
      [
        "Ġroom",
        "s"
      ],
      [
        "Ġco",
        "vers"
      ],
      [
        "Ġcomfort",
        "able"
      ],
      [
        "Ġout",
        "door"
      ],
      [
        "'",
        "d"
      ],
      [
        "b",
        "er"
      ],
      [
        "e",
        "ar"
      ],
      [
        "ad",
        "ing"
      ],
      [
        "Ġle",
        "g"
      ],
      [
        "Ġbed",
        "s"
      ],
      [
        "Ġacc",
        "ess"
      ],
      [
        "Ġlight",
        "ing"
      ],
      [
        "Ġwar",
        "rant"
      ],
      [
        "u",
        "p"
      ],
      [
        "Ġ",
        "8"
      ],
      [
        "Ġst",
        "ain"
      ],
      [
        "as",
        "ure"
      ],
      [
        "ce",
        "l"
      ],
      [
        "a",
        "x"
      ],
      [
        "b",
        "s"
      ],
      [
        "c",
        "y"
      ],
      [
        "d",
        "ay"
      ],
      [
        "f",
        "ul"
      ],
      [
        "o",
        "g"
      ],
      [
        "al",
        "ity"
      ],
      [
        "om",
        "et"
      ],
      [
        "Ġst",
        "and"
      ],
      [
        "ig",
        "h"
      ],
      [
        "Ġoff",
        "ers"
      ],
      [
        "Ġfe",
        "e"
      ],
      [
        "Ġpo",
        "li"
      ],
      [
        "ir",
        "st"
      ],
      [
        "Ġas",
        "sem"
      ],
      [
        "Ġfabric",
        "s"
      ],
      [
        "Ġrep",
        "air"
      ],
      [
        "Ġdet",
        "ai"
      ],
      [
        "Ġret",
        "urn"
      ],
      [
        "Ġsle",
        "ep"
      ],
      [
        "i",
        "re"
      ],
      [
        "Ġm",
        "ult"
      ],
      [
        "ab",
        "in"
      ],
      [
        "Ġh",
        "as"
      ],
      [
        "Ġl",
        "ar"
      ],
      [
        "Ġg",
        "ood"
      ],
      [
        "ud",
        "get"
      ],
      [
        "fe",
        "e"
      ],
      [
        "of",
        "fee"
      ],
      [
        "ĠL",
        "ook"
      ],
      [
        "Ġwork",
        "s"
      ],
      [
        "Ġap",
        "art"
      ],
      [
        "Ġpur",
        "ch"
      ],
      [
        "Ġprodu",
        "ct"
      ],
      [
        "c",
        "ess"
      ],
      [
        "i",
        "o"
      ],
      [
        "n",
        "ow"
      ],
      [
        "Ġt",
        "reat"
      ],
      [
        "Ġc",
        "abin"
      ],
      [
        "le",
        "x"
      ],
      [
        "Ġre",
        "place"
      ],
      [
        "Ġe",
        "asy"
      ],
      [
        "am",
        "ily"
      ],
      [
        "ess",
        "ional"
      ],
      [
        "ri",
        "or"
      ],
      [
        "ra",
        "w"
      ],
      [
        "un",
        "ctional"
      ],
      [
        "d",
        "ing"
      ],
      [
        "x",
        "t"
      ],
      [
        "Ġf",
        "oc"
      ],
      [
        "Ġb",
        "udget"
      ],
      [
        "ic",
        "al"
      ],
      [
        "Ġch",
        "ar"
      ],
      [
        "Ġex",
        "pl"
      ],
      [
        "Ġv",
        "is"
      ],
      [
        "Ġpo",
        "int"
      ],
      [
        "Ġdur",
        "able"
      ],
      [
        "n",
        "e"
      ],
      [
        "o",
        "ve"
      ],
      [
        "t",
        "s"
      ],
      [
        "Ġ",
        "-"
      ],
      [
        "in",
        "d"
      ],
      [
        "Ġs",
        "y"
      ],
      [
        "Ġc",
        "lear"
      ],
      [
        "Ġe",
        "le"
      ],
      [
        "te",
        "nd"
      ],
      [
        "i",
        "ous"
      ],
      [
        "p",
        "ular"
      ],
      [
        "u",
        "ll"
      ],
      [
        "Ġs",
        "ur"
      ],
      [
        "or",
        "n"
      ],
      [
        "at",
        "ural"
      ],
      [
        "Ġb",
        "oth"
      ],
      [
        "Ġg",
        "et"
      ],
      [
        "Ġth",
        "ese"
      ],
      [
        "Ġcon",
        "s"
      ],
      [
        "Ġwe",
        "ll"
      ],
      [
        "Ġtr",
        "aditional"
      ],
      [
        "Ġk",
        "now"
      ],
      [
        "Ġwh",
        "ile"
      ],
      [
        "Ġmet",
        "al"
      ],
      [
        "Ġfinish",
        "es"
      ],
      [
        "a",
        "pp"
      ],
      [
        "d",
        "ers"
      ],
      [
        "i",
        "ving"
      ],
      [
        "o",
        "st"
      ],
      [
        "t",
        "ing"
      ],
      [
        "v",
        "o"
      ],
      [
        "re",
        "en"
      ],
      [
        "re",
        "st"
      ],
      [
        "Ġs",
        "omet"
      ],
      [
        "at",
        "ch"
      ],
      [
        "Ġo",
        "t"
      ],
      [
        "pp",
        "ly"
      ],
      [
        "am",
        "e"
      ],
      [
        "Ġbu",
        "y"
      ],
      [
        "Ġcabin",
        "et"
      ],
      [
        "h",
        "ol"
      ],
      [
        "Ġs",
        "li"
      ],
      [
        "Ġd",
        "raw"
      ],
      [
        "ĠW",
        "h"
      ],
      [
        "ent",
        "s"
      ],
      [
        "Ġse",
        "ll"
      ],
      [
        "Ġe",
        "m"
      ],
      [
        "Ġg",
        "o"
      ],
      [
        "ad",
        "y"
      ],
      [
        "Ġme",
        "asure"
      ],
      [
        "Ġsty",
        "les"
      ],
      [
        "ag",
        "es"
      ],
      [
        "Ġwh",
        "ich"
      ],
      [
        "Ġprotect",
        "ive"
      ],
      [
        "Ġdisc",
        "ount"
      ],
      [
        "Ġassem",
        "bly"
      ],
      [
        "Ġsur",
        "f"
      ],
      [
        "Ġa",
        "f"
      ],
      [
        "Ġa",
        "g"
      ],
      [
        "Ġa",
        "l"
      ],
      [
        "er",
        "y"
      ],
      [
        "Ġc",
        "are"
      ],
      [
        "le",
        "ase"
      ],
      [
        "Ġw",
        "as"
      ],
      [
        "Ġp",
        "e"
      ],
      [
        "he",
        "re"
      ],
      [
        "Ġd",
        "ay"
      ],
      [
        "Ġre",
        "gular"
      ],
      [
        "Ġh",
        "igh"
      ],
      [
        "ver",
        "t"
      ],
      [
        "ĠA",
        "pply"
      ],
      [
        "ate",
        "ly"
      ],
      [
        "Ġex",
        "t"
      ],
      [
        "Ġsh",
        "are"
      ],
      [
        "Ġapp",
        "rop"
      ],
      [
        "Ġclean",
        "er"
      ],
      [
        "Ġapprop",
        "ri"
      ],
      [
        "g",
        "an"
      ],
      [
        "h",
        "ing"
      ],
      [
        "i",
        "en"
      ],
      [
        "or",
        "y"
      ],
      [
        "on",
        "th"
      ],
      [
        "Ġw",
        "hen"
      ],
      [
        "ar",
        "ch"
      ],
      [
        "Ġse",
        "at"
      ],
      [
        "Ġg",
        "l"
      ],
      [
        "Ġg",
        "r"
      ],
      [
        "Ġmo",
        "de"
      ],
      [
        "ĠS",
        "e"
      ],
      [
        "Ġcom",
        "m"
      ],
      [
        "clud",
        "e"
      ],
      [
        "Ġare",
        "as"
      ],
      [
        "Ġneed",
        "ed"
      ],
      [
        "ĠP",
        "er"
      ],
      [
        "Ġtr",
        "ans"
      ],
      [
        "Ġk",
        "it"
      ],
      [
        "Ġcustom",
        "er"
      ],
      [
        "ĠIn",
        "clude"
      ],
      [
        "Ġim",
        "m"
      ],
      [
        "Ġty",
        "p"
      ],
      [
        "Ġfl",
        "oor"
      ],
      [
        "Ġprof",
        "essional"
      ],
      [
        "w",
        "een"
      ],
      [
        "Ġc",
        "ush"
      ],
      [
        "Ġc",
        "offee"
      ],
      [
        "an",
        "k"
      ],
      [
        "Ġd",
        "im"
      ],
      [
        "Ġb",
        "ook"
      ],
      [
        "Ġse",
        "ction"
      ],
      [
        "Ġse",
        "arch"
      ],
      [
        "Ġpro",
        "cess"
      ],
      [
        "Ġas",
        "s"
      ],
      [
        "00",
        "0"
      ],
      [
        "ĠAd",
        "d"
      ],
      [
        "Ġbet",
        "ween"
      ],
      [
        "Ġprov",
        "ide"
      ],
      [
        "Ġappropri",
        "ate"
      ],
      [
        "e",
        "k"
      ],
      [
        "n",
        "s"
      ],
      [
        "Ġb",
        "r"
      ],
      [
        "ĠI",
        "t"
      ],
      [
        "Ġn",
        "atural"
      ],
      [
        "Ġse",
        "ver"
      ],
      [
        "ĠE",
        "x"
      ],
      [
        "Ġpre",
        "v"
      ],
      [
        "ens",
        "ions"
      ],
      [
        "Ġgu",
        "ide"
      ],
      [
        "Ġwarrant",
        "y"
      ],
      [
        "Ġsurf",
        "aces"
      ],
      [
        "Ġimm",
        "edi"
      ],
      [
        "Ġdim",
        "ensions"
      ],
      [
        "Ġsever",
        "al"
      ],
      [
        ")",
        "."
      ],
      [
        "c",
        "o"
      ],
      [
        "f",
        "ore"
      ],
      [
        "m",
        "s"
      ],
      [
        "Ø",
        "§"
      ],
      [
        "Ġ",
        "ent"
      ],
      [
        "Ġ",
        "ke"
      ],
      [
        "Ġp",
        "at"
      ],
      [
        "Ġm",
        "ake"
      ],
      [
        "Ġre",
        "m"
      ],
      [
        "Ġre",
        "nt"
      ],
      [
        "Ġn",
        "ow"
      ],
      [
        "Ġe",
        "very"
      ],
      [
        "ĠC",
        "lean"
      ],
      [
        "ĠT",
        "hat"
      ],
      [
        "Ġoff",
        "ice"
      ],
      [
        "Ġr",
        "ange"
      ],
      [
        "Ġex",
        "per"
      ],
      [
        "Ġex",
        "tend"
      ],
      [
        "il",
        "t"
      ],
      [
        "Ġpo",
        "pular"
      ],
      [
        "Ġadd",
        "itional"
      ],
      [
        "Ġbl",
        "ue"
      ],
      [
        "Ġcont",
        "act"
      ],
      [
        "Ġmain",
        "tain"
      ],
      [
        "Ġphot",
        "os"
      ],
      [
        "Ġpurch",
        "ase"
      ],
      [
        "hol",
        "st"
      ],
      [
        "e",
        "red"
      ],
      [
        "i",
        "b"
      ],
      [
        "i",
        "um"
      ],
      [
        "m",
        "ium"
      ],
      [
        "t",
        "om"
      ],
      [
        "Ġa",
        "c"
      ],
      [
        "or",
        "ry"
      ],
      [
        "er",
        "g"
      ],
      [
        "Ġc",
        "ur"
      ],
      [
        "ab",
        "ility"
      ],
      [
        "Ġli",
        "st"
      ],
      [
        "im",
        "al"
      ],
      [
        "Ġbe",
        "fore"
      ],
      [
        "Ġte",
        "ll"
      ],
      [
        "Ġdur",
        "ing"
      ],
      [
        "Ġpart",
        "s"
      ],
      [
        "way",
        "s"
      ],
      [
        "Ġsomet",
        "hing"
      ],
      [
        "Ġag",
        "ain"
      ],
      [
        "Ġregular",
        "ly"
      ],
      [
        "ĠPer",
        "fect"
      ],
      [
        "a",
        "ving"
      ],
      [
        "f",
        "f"
      ],
      [
        "o",
        "ple"
      ],
      [
        "y",
        "ear"
      ],
      [
        "Ġt",
        "ake"
      ],
      [
        "st",
        "em"
      ],
      [
        "li",
        "d"
      ],
      [
        "Ġwith",
        "in"
      ],
      [
        "ent",
        "ial"
      ],
      [
        "Ġth",
        "an"
      ],
      [
        "Ġcon",
        "d"
      ],
      [
        "Ġcon",
        "f"
      ],
      [
        "Ġcon",
        "sider"
      ],
      [
        "Ġsu",
        "n"
      ],
      [
        "Ġqu",
        "ality"
      ],
      [
        "Ġbet",
        "ter"
      ],
      [
        "Ġmult",
        "i"
      ],
      [
        "Ġreplace",
        "ment"
      ],
      [
        "Ġpe",
        "ople"
      ],
      [
        "5",
        "00"
      ],
      [
        "c",
        "on"
      ],
      [
        "n",
        "ce"
      ],
      [
        "p",
        "ace"
      ],
      [
        "Ġs",
        "orry"
      ],
      [
        "Ġf",
        "ree"
      ],
      [
        "Ġb",
        "ar"
      ],
      [
        "Ġo",
        "ver"
      ],
      [
        "pp",
        "ing"
      ],
      [
        "ĠY",
        "our"
      ],
      [
        "Ġv",
        "iew"
      ],
      [
        "Ġad",
        "justable"
      ],
      [
        "Ġprote",
        "ction"
      ],
      [
        "Ġup",
        "holst"
      ],
      [
        "Ġsc",
        "r"
      ],
      [
        "gr",
        "am"
      ],
      [
        "Ġpoli",
        "cy"
      ],
      [
        "Ġdetai",
        "ls"
      ],
      [
        "ien",
        "ce"
      ],
      [
        "Ġimmedi",
        "ately"
      ],
      [
        "Ġagain",
        "st"
      ],
      [
        "1",
        "2"
      ],
      [
        "c",
        "es"
      ],
      [
        "h",
        "able"
      ],
      [
        "i",
        "ed"
      ],
      [
        "p",
        "or"
      ],
      [
        "p",
        "en"
      ],
      [
        "Ġf",
        "irst"
      ],
      [
        "Ġc",
        "orn"
      ],
      [
        "Ġp",
        "rior"
      ],
      [
        "Ġp",
        "lease"
      ],
      [
        "al",
        "s"
      ],
      [
        "Ġre",
        "ading"
      ],
      [
        "ol",
        "d"
      ],
      [
        "Ġh",
        "ow"
      ],
      [
        "Ġse",
        "lect"
      ],
      [
        "Ġe",
        "ach"
      ],
      [
        "ec",
        "h"
      ],
      [
        "ĠT",
        "V"
      ],
      [
        "Ġl",
        "a"
      ],
      [
        "Ġu",
        "n"
      ],
      [
        "ce",
        "pt"
      ],
      [
        "Ġbu",
        "ilt"
      ],
      [
        "Ġso",
        "lid"
      ],
      [
        "Ġap",
        "ol"
      ],
      [
        "Ġty",
        "pe"
      ],
      [
        "i",
        "v"
      ],
      [
        "s",
        "ing"
      ],
      [
        "Ġ",
        "K"
      ],
      [
        "or",
        "ies"
      ],
      [
        "Ġf",
        "ull"
      ],
      [
        "on",
        "e"
      ],
      [
        "on",
        "es"
      ],
      [
        "Ġw",
        "ater"
      ],
      [
        "Ġm",
        "onth"
      ],
      [
        "Ġto",
        "p"
      ],
      [
        "ĠI",
        "f"
      ],
      [
        "ĠW",
        "hen"
      ],
      [
        "Ġin",
        "te"
      ],
      [
        "et",
        "y"
      ],
      [
        "Ġe",
        "ven"
      ],
      [
        "ĠC",
        "ol"
      ],
      [
        "Ġch",
        "ild"
      ],
      [
        "ĠE",
        "asy"
      ],
      [
        "ers",
        "on"
      ],
      [
        "Ġcolle",
        "ctions"
      ],
      [
        "Ġex",
        "p"
      ],
      [
        "us",
        "ed"
      ],
      [
        "ĠL",
        "iving"
      ],
      [
        "ir",
        "m"
      ],
      [
        "ĠM",
        "o"
      ],
      [
        "um",
        "id"
      ],
      [
        "Ġpl",
        "an"
      ],
      [
        "Ġinst",
        "all"
      ],
      [
        "Ġtreat",
        "ment"
      ],
      [
        "Ġsy",
        "stem"
      ],
      [
        "Ġele",
        "ments"
      ],
      [
        "Ġcush",
        "ions"
      ],
      [
        "Ġla",
        "you"
      ],
      [
        "b",
        "e"
      ],
      [
        "c",
        "lean"
      ],
      [
        "g",
        "est"
      ],
      [
        "o",
        "v"
      ],
      [
        "o",
        "se"
      ],
      [
        "Ġ",
        "ic"
      ],
      [
        "Ġ",
        "ens"
      ],
      [
        "re",
        "nt"
      ],
      [
        "Ġb",
        "al"
      ],
      [
        "ar",
        "k"
      ],
      [
        "id",
        "es"
      ],
      [
        "Ġpro",
        "gram"
      ],
      [
        "Ġch",
        "o"
      ],
      [
        "Ġsh",
        "o"
      ],
      [
        "Ġsh",
        "ould"
      ],
      [
        "ĠTh",
        "ese"
      ],
      [
        "Ġfi",
        "re"
      ],
      [
        "Ġshel",
        "ves"
      ],
      [
        "Ġstud",
        "io"
      ],
      [
        "ax",
        "im"
      ],
      [
        "og",
        "ize"
      ],
      [
        "lex",
        "ible"
      ],
      [
        "Ġext",
        "ra"
      ],
      [
        "Ġapol",
        "ogize"
      ],
      [
        "Ġic",
        "on"
      ],
      [
        "G",
        "u"
      ],
      [
        "s",
        "u"
      ],
      [
        "t",
        "en"
      ],
      [
        "Ġs",
        "al"
      ],
      [
        "le",
        "ction"
      ],
      [
        "Ġd",
        "ec"
      ],
      [
        "Ġd",
        "ire"
      ],
      [
        "ar",
        "n"
      ],
      [
        "ic",
        "ally"
      ],
      [
        "Ġh",
        "our"
      ],
      [
        "Ġh",
        "app"
      ],
      [
        "as",
        "on"
      ],
      [
        "Ġ1",
        "0"
      ],
      [
        "Ġl",
        "in"
      ],
      [
        "ĠA",
        "lso"
      ],
      [
        "ĠO",
        "f"
      ],
      [
        "ĠSt",
        "orage"
      ],
      [
        "Ġexpl",
        "ore"
      ],
      [
        "Ġens",
        "ure"
      ],
      [
        "e",
        "ep"
      ],
      [
        "o",
        "ard"
      ],
      [
        "Ġs",
        "im"
      ],
      [
        "Ġm",
        "edi"
      ],
      [
        "Ġm",
        "axim"
      ],
      [
        "Ġn",
        "o"
      ],
      [
        "Ġn",
        "av"
      ],
      [
        "Ġor",
        "gan"
      ],
      [
        "Ġ3",
        "0"
      ],
      [
        "ĠS",
        "of"
      ],
      [
        "th",
        "ing"
      ],
      [
        "Ġset",
        "s"
      ],
      [
        "form",
        "ation"
      ],
      [
        "ĠCom",
        "fort"
      ],
      [
        "Ġpack",
        "ages"
      ],
      [
        "Ġapart",
        "ment"
      ],
      [
        "ind",
        "ow"
      ],
      [
        "Ġmulti",
        "ple"
      ],
      [
        "umid",
        "ity"
      ],
      [
        "4",
        "9"
      ],
      [
        "b",
        "an"
      ],
      [
        "r",
        "al"
      ],
      [
        "Ġ",
        "Q"
      ],
      [
        "Ġt",
        "ap"
      ],
      [
        "ou",
        "se"
      ],
      [
        "Ġf",
        "amily"
      ],
      [
        "Ġb",
        "as"
      ],
      [
        "ro",
        "of"
      ],
      [
        "Ġthe",
        "ir"
      ],
      [
        "Ġse",
        "ctional"
      ],
      [
        "Ġl",
        "ow"
      ],
      [
        "Ġcan",
        "cel"
      ],
      [
        "Ġch",
        "ange"
      ],
      [
        "ĠO",
        "r"
      ],
      [
        "ĠH",
        "e"
      ],
      [
        "Ġwe",
        "ek"
      ],
      [
        "Ġv",
        "ar"
      ],
      [
        "Ġtr",
        "y"
      ],
      [
        "Ġadd",
        "ress"
      ],
      [
        "Ġsa",
        "fe"
      ],
      [
        "Ġlar",
        "ge"
      ],
      [
        "Ġfoc",
        "al"
      ],
      [
        "Ġvis",
        "ual"
      ],
      [
        "ĠSe",
        "lect"
      ],
      [
        "Ġprev",
        "ent"
      ],
      [
        "Ġinte",
        "rest"
      ],
      [
        "g",
        "es"
      ],
      [
        "r",
        "ban"
      ],
      [
        "Ġ",
        "z"
      ],
      [
        "in",
        "ess"
      ],
      [
        "re",
        "ate"
      ],
      [
        "Ġf",
        "unctional"
      ],
      [
        "Ġw",
        "indow"
      ],
      [
        "Ġp",
        "erson"
      ],
      [
        "an",
        "ging"
      ],
      [
        "Ġd",
        "on"
      ],
      [
        "Ġd",
        "ust"
      ],
      [
        "Ġb",
        "us"
      ],
      [
        "ar",
        "m"
      ],
      [
        "st",
        "all"
      ],
      [
        "Ġo",
        "pen"
      ],
      [
        "Ġin",
        "formation"
      ],
      [
        "Ġst",
        "ep"
      ],
      [
        "ĠC",
        "heck"
      ],
      [
        "ĠC",
        "reate"
      ],
      [
        "age",
        "ment"
      ],
      [
        "Ġhe",
        "at"
      ],
      [
        "Ġle",
        "arn"
      ],
      [
        "Ġtr",
        "ack"
      ],
      [
        "Ġpre",
        "fere"
      ],
      [
        "Ġspecial",
        "ized"
      ],
      [
        "ĠRe",
        "place"
      ],
      [
        "Ġmatch",
        "ing"
      ],
      [
        "ĠWh",
        "ich"
      ],
      [
        "Ġgl",
        "ass"
      ],
      [
        "Ġmonth",
        "s"
      ],
      [
        "Ġfire",
        "place"
      ],
      [
        "Gu",
        "ard"
      ],
      [
        "Ġdire",
        "ct"
      ],
      [
        "Ġhour",
        "s"
      ],
      [
        "Ġbus",
        "iness"
      ],
      [
        "'",
        "ve"
      ],
      [
        "1",
        "9"
      ],
      [
        "S",
        "t"
      ],
      [
        "f",
        "ety"
      ],
      [
        "n",
        "ess"
      ],
      [
        "p",
        "ort"
      ],
      [
        "Ġ",
        "ed"
      ],
      [
        "in",
        "k"
      ],
      [
        "re",
        "n"
      ],
      [
        "le",
        "nt"
      ],
      [
        "li",
        "g"
      ],
      [
        "Ġo",
        "ld"
      ],
      [
        "Ġin",
        "ter"
      ],
      [
        "Ġh",
        "ing"
      ],
      [
        "Ġh",
        "umidity"
      ],
      [
        "Ġn",
        "um"
      ],
      [
        "ĠT",
        "r"
      ],
      [
        "if",
        "y"
      ],
      [
        "Ġmo",
        "b"
      ],
      [
        "Ġmo",
        "d"
      ],
      [
        "Ġr",
        "ound"
      ],
      [
        "Ġpiec",
        "e"
      ],
      [
        "Ġpr",
        "om"
      ],
      [
        "Ġpre",
        "mium"
      ],
      [
        "Ġpl",
        "ans"
      ],
      [
        "Ġwood",
        "en"
      ],
      [
        "Ġacc",
        "ount"
      ],
      [
        "Ġspecific",
        "ally"
      ],
      [
        "Ġsc",
        "he"
      ],
      [
        "Ġres",
        "ist"
      ],
      [
        "ĠPro",
        "v"
      ],
      [
        "Ġcomplete",
        "ly"
      ],
      [
        "vo",
        "id"
      ],
      [
        "Ġem",
        "ail"
      ],
      [
        "Ġwas",
        "hable"
      ],
      [
        "Ġday",
        "s"
      ],
      [
        "ib",
        "ility"
      ],
      [
        "por",
        "ary"
      ],
      [
        "ĠK",
        "eep"
      ],
      [
        "ĠCol",
        "lection"
      ],
      [
        "Ġinstall",
        "ation"
      ],
      [
        "b",
        "oard"
      ],
      [
        "f",
        "t"
      ],
      [
        "g",
        "er"
      ],
      [
        "l",
        "o"
      ],
      [
        "l",
        "ine"
      ],
      [
        "Ġa",
        "way"
      ],
      [
        "Ġs",
        "ide"
      ],
      [
        "or",
        "s"
      ],
      [
        "Ġw",
        "here"
      ],
      [
        "li",
        "sh"
      ],
      [
        "Ġto",
        "day"
      ],
      [
        "Ġst",
        "o"
      ],
      [
        "Ġse",
        "c"
      ],
      [
        "Ġl",
        "oc"
      ],
      [
        "ĠA",
        "cc"
      ],
      [
        "ĠA",
        "ss"
      ],
      [
        "ut",
        "ral"
      ],
      [
        "Ġwe",
        "ather"
      ],
      [
        "pl",
        "es"
      ],
      [
        "Ġar",
        "ound"
      ],
      [
        "ĠThe",
        "y"
      ],
      [
        "ĠTh",
        "ank"
      ],
      [
        "ĠIn",
        "stall"
      ],
      [
        "Ġmin",
        "imal"
      ],
      [
        "Ġass",
        "ist"
      ],
      [
        "Ġrent",
        "al"
      ],
      [
        "Ġexper",
        "ience"
      ],
      [
        "Ġchild",
        "ren"
      ],
      [
        "Ġsal",
        "es"
      ],
      [
        "ĠAss",
        "ess"
      ],
      [
        "'",
        "."
      ],
      [
        "C",
        "are"
      ],
      [
        "h",
        "od"
      ],
      [
        "n",
        "g"
      ],
      [
        "n",
        "ces"
      ],
      [
        "t",
        "on"
      ],
      [
        "u",
        "ally"
      ],
      [
        "Ġ",
        "just"
      ],
      [
        "re",
        "ady"
      ],
      [
        "Ġs",
        "it"
      ],
      [
        "Ġc",
        "e"
      ],
      [
        "at",
        "us"
      ],
      [
        "Ġw",
        "al"
      ],
      [
        "he",
        "t"
      ],
      [
        "Ġm",
        "ight"
      ],
      [
        "st",
        "ru"
      ],
      [
        "li",
        "m"
      ],
      [
        "Ġto",
        "ol"
      ],
      [
        "ic",
        "ular"
      ],
      [
        "Ġfurn",
        "ish"
      ],
      [
        "Ġre",
        "st"
      ],
      [
        "Ġst",
        "atus"
      ],
      [
        "Ġe",
        "qu"
      ],
      [
        "ow",
        "n"
      ],
      [
        "Ġcon",
        "vers"
      ],
      [
        "Ġcon",
        "stru"
      ],
      [
        "iz",
        "ation"
      ],
      [
        "ĠP",
        "l"
      ],
      [
        "Ġcre",
        "ating"
      ],
      [
        "Ġpr",
        "ic"
      ],
      [
        "Ġclean",
        "ing"
      ],
      [
        "Ġup",
        "d"
      ],
      [
        "ag",
        "ed"
      ],
      [
        "Ġqu",
        "ick"
      ],
      [
        "Ġcl",
        "oth"
      ],
      [
        "ip",
        "ment"
      ],
      [
        "Ġrug",
        "s"
      ],
      [
        "Ġleg",
        "s"
      ],
      [
        "Ġke",
        "ep"
      ],
      [
        "ech",
        "n"
      ],
      [
        "ĠMo",
        "dern"
      ],
      [
        "ĠSof",
        "a"
      ],
      [
        "Ġnum",
        "ber"
      ],
      [
        "Ġmod",
        "ular"
      ],
      [
        "2",
        "9"
      ],
      [
        "d",
        "y"
      ],
      [
        "g",
        "gest"
      ],
      [
        "o",
        "am"
      ],
      [
        "t",
        "ings"
      ],
      [
        "Ġt",
        "echn"
      ],
      [
        "at",
        "es"
      ],
      [
        "Ġp",
        "ain"
      ],
      [
        "an",
        "c"
      ],
      [
        "an",
        "gular"
      ],
      [
        "li",
        "ght"
      ],
      [
        "ro",
        "f"
      ],
      [
        "ct",
        "angular"
      ],
      [
        "ic",
        "s"
      ],
      [
        "Ġre",
        "ce"
      ],
      [
        "Ġre",
        "ctangular"
      ],
      [
        "Ġl",
        "o"
      ],
      [
        "if",
        "ied"
      ],
      [
        "Ġg",
        "reat"
      ],
      [
        "ĠA",
        "R"
      ],
      [
        "ate",
        "g"
      ],
      [
        "Ġmo",
        "ve"
      ],
      [
        "Ġth",
        "ree"
      ],
      [
        "Ġcom",
        "e"
      ],
      [
        "Ġde",
        "f"
      ],
      [
        "Ġcon",
        "c"
      ],
      [
        "Ġcon",
        "ne"
      ],
      [
        "Ġle",
        "ast"
      ],
      [
        "Ġsu",
        "ggest"
      ],
      [
        "Ġsh",
        "i"
      ],
      [
        "ĠR",
        "em"
      ],
      [
        "ific",
        "ations"
      ],
      [
        "Ġpl",
        "ace"
      ],
      [
        "Ġk",
        "id"
      ],
      [
        "Ġqu",
        "een"
      ],
      [
        "Ġdur",
        "ability"
      ],
      [
        "ast",
        "er"
      ],
      [
        "Ġsc",
        "reen"
      ],
      [
        "ak",
        "ing"
      ],
      [
        "du",
        "le"
      ],
      [
        "Ġmet",
        "hod"
      ],
      [
        "Ġarrange",
        "ment"
      ],
      [
        "Ġgu",
        "est"
      ],
      [
        "Ġshel",
        "f"
      ],
      [
        "cel",
        "lent"
      ],
      [
        "Ġfee",
        "l"
      ],
      [
        "Ġot",
        "her"
      ],
      [
        "Ġot",
        "tom"
      ],
      [
        "Ġbuy",
        "ing"
      ],
      [
        "Ġaf",
        "ter"
      ],
      [
        "Ø§",
        "Ù"
      ],
      [
        "Ġcur",
        "rent"
      ],
      [
        "Ġcond",
        "ition"
      ],
      [
        "lig",
        "n"
      ],
      [
        "Ġhing",
        "e"
      ],
      [
        "Ġce",
        "il"
      ],
      [
        "Ġconstru",
        "ction"
      ],
      [
        "Ġpric",
        "ing"
      ],
      [
        "1",
        "0"
      ],
      [
        "b",
        "r"
      ],
      [
        "c",
        "ri"
      ],
      [
        "e",
        "f"
      ],
      [
        "e",
        "ak"
      ],
      [
        "l",
        "c"
      ],
      [
        "m",
        "ing"
      ],
      [
        "m",
        "art"
      ],
      [
        "m",
        "ount"
      ],
      [
        "p",
        "on"
      ],
      [
        "v",
        "ir"
      ],
      [
        "z",
        "y"
      ],
      [
        "Ġ",
        "7"
      ],
      [
        "in",
        "s"
      ],
      [
        "re",
        "nd"
      ],
      [
        "Ġt",
        "em"
      ],
      [
        "Ġf",
        "it"
      ],
      [
        "Ġf",
        "oam"
      ],
      [
        "er",
        "tain"
      ],
      [
        "it",
        "ing"
      ],
      [
        "ur",
        "p"
      ],
      [
        "Ġm",
        "ed"
      ],
      [
        "Ġm",
        "em"
      ],
      [
        "Ġm",
        "ade"
      ],
      [
        "om",
        "es"
      ],
      [
        "ar",
        "row"
      ],
      [
        "Ġto",
        "o"
      ],
      [
        "is",
        "e"
      ],
      [
        "Ġh",
        "ouse"
      ],
      [
        "am",
        "ad"
      ],
      [
        "ĠA",
        "re"
      ],
      [
        "ĠA",
        "ll"
      ],
      [
        "ĠS",
        "end"
      ],
      [
        "Ġcom",
        "b"
      ],
      [
        "Ġde",
        "p"
      ],
      [
        "ust",
        "r"
      ],
      [
        "Ġwe",
        "bs"
      ],
      [
        "Ġfr",
        "ame"
      ],
      [
        "Ġset",
        "up"
      ],
      [
        "Ġbro",
        "w"
      ],
      [
        "ak",
        "es"
      ],
      [
        "od",
        "y"
      ],
      [
        "Ġen",
        "vir"
      ],
      [
        "Ġsa",
        "fety"
      ],
      [
        "Ġphot",
        "o"
      ],
      [
        "Ġdesk",
        "s"
      ],
      [
        "xt",
        "ure"
      ],
      [
        "Ġpoint",
        "s"
      ],
      [
        "Ġdraw",
        "er"
      ],
      [
        "Ġgr",
        "ay"
      ],
      [
        "Ġcho",
        "ice"
      ],
      [
        "Ġsho",
        "pping"
      ],
      [
        "Ġlin",
        "es"
      ],
      [
        "Ġequ",
        "ipment"
      ],
      [
        "Ġconvers",
        "ation"
      ],
      [
        "ĠRem",
        "ove"
      ],
      [
        "amad",
        "an"
      ],
      [
        "Ġwebs",
        "ite"
      ],
      [
        "Ġenvir",
        "on"
      ],
      [
        "'",
        ","
      ],
      [
        "2",
        "4"
      ],
      [
        "a",
        "ut"
      ],
      [
        "p",
        "s"
      ],
      [
        "u",
        "x"
      ],
      [
        "w",
        "ard"
      ],
      [
        "y",
        "al"
      ],
      [
        "Ġ",
        "#"
      ],
      [
        "Ġs",
        "w"
      ],
      [
        "Ġs",
        "ave"
      ],
      [
        "Ġt",
        "w"
      ],
      [
        "Ġt",
        "all"
      ],
      [
        "it",
        "ed"
      ],
      [
        "Ġw",
        "on"
      ],
      [
        "Ġw",
        "ard"
      ],
      [
        "ur",
        "dy"
      ],
      [
        "en",
        "u"
      ],
      [
        "ac",
        "ing"
      ],
      [
        "Ġre",
        "qu"
      ],
      [
        "Ġst",
        "ore"
      ],
      [
        "Ġn",
        "ec"
      ],
      [
        "Ġn",
        "arrow"
      ],
      [
        "Ġ2",
        "0"
      ],
      [
        "Ġ2",
        "4"
      ],
      [
        "Ġg",
        "reen"
      ],
      [
        "ĠA",
        "void"
      ],
      [
        "ch",
        "ange"
      ],
      [
        "ess",
        "ary"
      ],
      [
        "Ġbe",
        "aut"
      ],
      [
        "Ġpo",
        "s"
      ],
      [
        "Ġar",
        "t"
      ],
      [
        "ĠG",
        "reat"
      ],
      [
        "Ġres",
        "pon"
      ],
      [
        "ĠAd",
        "justable"
      ],
      [
        "Ġman",
        "y"
      ],
      [
        "Ġprov",
        "ides"
      ],
      [
        "ĠCom",
        "p"
      ],
      [
        "Ġstain",
        "s"
      ],
      [
        "Ġstand",
        "ard"
      ],
      [
        "Ġlar",
        "ger"
      ],
      [
        "Ġapart",
        "ments"
      ],
      [
        "vert",
        "ible"
      ],
      [
        "Ġmode",
        "ls"
      ],
      [
        "Ġtyp",
        "es"
      ],
      [
        "Ġtyp",
        "ically"
      ],
      [
        "Ġbook",
        "s"
      ],
      [
        "Ġupholst",
        "ery"
      ],
      [
        "Ġscr",
        "atch"
      ],
      [
        "Ġhapp",
        "y"
      ],
      [
        "ĠOf",
        "fer"
      ],
      [
        "Ġvar",
        "ious"
      ],
      [
        "Ġprefere",
        "nces"
      ],
      [
        "Ġmob",
        "ile"
      ],
      [
        "Ġrece",
        "ive"
      ],
      [
        "Ġconne",
        "ct"
      ],
      [
        "Ġottom",
        "ans"
      ],
      [
        "Ġward",
        "ro"
      ],
      [
        "d",
        "d"
      ],
      [
        "e",
        "ll"
      ],
      [
        "i",
        "or"
      ],
      [
        "i",
        "red"
      ],
      [
        "n",
        "er"
      ],
      [
        "p",
        "ec"
      ],
      [
        "u",
        "b"
      ],
      [
        "Ġ",
        "year"
      ],
      [
        "Ġa",
        "lign"
      ],
      [
        "in",
        "for"
      ],
      [
        "re",
        "ly"
      ],
      [
        "Ġt",
        "rend"
      ],
      [
        "Ġc",
        "a"
      ],
      [
        "at",
        "ches"
      ],
      [
        "at",
        "form"
      ],
      [
        "on",
        "om"
      ],
      [
        "Ġw",
        "ide"
      ],
      [
        "ur",
        "y"
      ],
      [
        "Ġthe",
        "y"
      ],
      [
        "Ġo",
        "cc"
      ],
      [
        "Ġh",
        "omes"
      ],
      [
        "oo",
        "sing"
      ],
      [
        "Ġe",
        "co"
      ],
      [
        "ve",
        "l"
      ],
      [
        "Ġl",
        "am"
      ],
      [
        "am",
        "es"
      ],
      [
        "ĠA",
        "r"
      ],
      [
        "ut",
        "door"
      ],
      [
        "ĠE",
        "ns"
      ],
      [
        "Ġwe",
        "ight"
      ],
      [
        "ist",
        "ure"
      ],
      [
        "Ġv",
        "al"
      ],
      [
        "pl",
        "ay"
      ],
      [
        "Ġsof",
        "t"
      ],
      [
        "Ġar",
        "m"
      ],
      [
        "ĠR",
        "amadan"
      ],
      [
        "Ġpr",
        "im"
      ],
      [
        "Ġpr",
        "ices"
      ],
      [
        "ag",
        "er"
      ],
      [
        "Ġspecial",
        "ist"
      ],
      [
        "int",
        "age"
      ],
      [
        "Ġdam",
        "aged"
      ],
      [
        "Ġarrange",
        "ments"
      ],
      [
        "ick",
        "er"
      ],
      [
        "Ġinst",
        "ru"
      ],
      [
        "Ġpack",
        "age"
      ],
      [
        "Ġmattress",
        "es"
      ],
      [
        "Ġproduct",
        "s"
      ],
      [
        "Ġcons",
        "ult"
      ],
      [
        "Ġal",
        "ready"
      ],
      [
        "ff",
        "ic"
      ],
      [
        "Ġsun",
        "light"
      ],
      [
        "Ġprior",
        "ity"
      ],
      [
        "ĠProv",
        "ide"
      ],
      [
        "Ġsec",
        "ure"
      ],
      [
        "Ġnec",
        "essary"
      ],
      [
        "ĠEns",
        "ure"
      ],
      [
        "2",
        "99"
      ],
      [
        "S",
        "pace"
      ],
      [
        "f",
        "oc"
      ],
      [
        "m",
        "er"
      ],
      [
        "t",
        "y"
      ],
      [
        "Ġ",
        "erg"
      ],
      [
        "Ġs",
        "ust"
      ],
      [
        "or",
        "ough"
      ],
      [
        "Ġf",
        "ut"
      ],
      [
        "er",
        "a"
      ],
      [
        "at",
        "s"
      ],
      [
        "at",
        "is"
      ],
      [
        "it",
        "es"
      ],
      [
        "it",
        "ions"
      ],
      [
        "it",
        "ive"
      ],
      [
        "it",
        "ize"
      ],
      [
        "le",
        "t"
      ],
      [
        "Ġw",
        "id"
      ],
      [
        "an",
        "e"
      ],
      [
        "Ġd",
        "ist"
      ],
      [
        "Ġd",
        "own"
      ],
      [
        "Ġm",
        "ild"
      ],
      [
        "ct",
        "ural"
      ],
      [
        "Ġin",
        "vo"
      ],
      [
        "Ġre",
        "cl"
      ],
      [
        "Ġh",
        "ard"
      ],
      [
        "Ġe",
        "as"
      ],
      [
        "Ġor",
        "ders"
      ],
      [
        "as",
        "es"
      ],
      [
        "am",
        "ing"
      ],
      [
        "Ġg",
        "ather"
      ],
      [
        "Ġne",
        "utral"
      ],
      [
        "im",
        "es"
      ],
      [
        "Ġth",
        "orough"
      ],
      [
        "Ġis",
        "su"
      ],
      [
        "ri",
        "v"
      ],
      [
        "Ġfr",
        "ames"
      ],
      [
        "ĠP",
        "re"
      ],
      [
        "ĠĠĊ",
        "Ġ"
      ],
      [
        "Ġpo",
        "ss"
      ],
      [
        "ĠM",
        "y"
      ],
      [
        "Ġdis",
        "play"
      ],
      [
        "Ġdiffere",
        "nce"
      ],
      [
        "Ġpart",
        "icular"
      ],
      [
        "ĠSt",
        "art"
      ],
      [
        "Ġman",
        "agement"
      ],
      [
        "Ġman",
        "ager"
      ],
      [
        "Ġcheck",
        "out"
      ],
      [
        "Ġprefer",
        "red"
      ],
      [
        "ĠN",
        "o"
      ],
      [
        "Ġwall",
        "s"
      ],
      [
        "Ġexpl",
        "ain"
      ],
      [
        "Ġdiscount",
        "s"
      ],
      [
        "Ġrem",
        "ov"
      ],
      [
        "Ġconf",
        "irm"
      ],
      [
        "Ġcorn",
        "er"
      ],
      [
        "Ġfurnish",
        "ing"
      ],
      [
        "mount",
        "ed"
      ],
      [
        "Ġenviron",
        "ment"
      ],
      [
        "onom",
        "ic"
      ],
      [
        "Ġocc",
        "as"
      ],
      [
        "Ġinstru",
        "ctions"
      ],
      [
        "foc",
        "used"
      ],
      [
        "Ġsust",
        "ain"
      ],
      [
        "atis",
        "f"
      ],
      [
        "Ġthorough",
        "ly"
      ],
      [
        "Ġissu",
        "es"
      ],
      [
        "b",
        "ed"
      ],
      [
        "c",
        "m"
      ],
      [
        "h",
        "y"
      ],
      [
        "i",
        "x"
      ],
      [
        "i",
        "li"
      ],
      [
        "i",
        "ent"
      ],
      [
        "i",
        "ber"
      ],
      [
        "l",
        "ow"
      ],
      [
        "Ġ",
        "j"
      ],
      [
        "Ġ",
        "ro"
      ],
      [
        "Ġt",
        "om"
      ],
      [
        "or",
        "d"
      ],
      [
        "or",
        "row"
      ],
      [
        "er",
        "t"
      ],
      [
        "Ġc",
        "all"
      ],
      [
        "Ġm",
        "enu"
      ],
      [
        "st",
        "s"
      ],
      [
        "ic",
        "rof"
      ],
      [
        "Ġin",
        "s"
      ],
      [
        "Ġin",
        "door"
      ],
      [
        "Ġre",
        "l"
      ],
      [
        "Ġst",
        "urdy"
      ],
      [
        "oo",
        "t"
      ],
      [
        "Ġn",
        "ight"
      ],
      [
        "Ġse",
        "nd"
      ],
      [
        "ĠT",
        "ap"
      ],
      [
        "Ġsp",
        "eak"
      ],
      [
        "pp",
        "ed"
      ],
      [
        "am",
        "era"
      ],
      [
        "Ġhe",
        "re"
      ],
      [
        "Ġmo",
        "ving"
      ],
      [
        "Ġde",
        "ep"
      ],
      [
        "art",
        "ment"
      ],
      [
        "iz",
        "es"
      ],
      [
        "Ġdes",
        "cri"
      ],
      [
        "Ġle",
        "t"
      ],
      [
        "ĠP",
        "o"
      ],
      [
        "Ġv",
        "intage"
      ],
      [
        "Ġco",
        "zy"
      ],
      [
        "Ġpl",
        "atform"
      ],
      [
        "gr",
        "ade"
      ],
      [
        "ass",
        "ic"
      ],
      [
        "form",
        "ance"
      ],
      [
        "Ġheight",
        "s"
      ],
      [
        "Ġprof",
        "ile"
      ],
      [
        "Ġnot",
        "ifications"
      ],
      [
        "Ġdoor",
        "s"
      ],
      [
        "Ġaccess",
        "ories"
      ],
      [
        "Ġdetai",
        "led"
      ],
      [
        "Ġsli",
        "de"
      ],
      [
        "Ġgo",
        "ing"
      ],
      [
        "iv",
        "id"
      ],
      [
        "Ġlayou",
        "ts"
      ],
      [
        "Ġmaxim",
        "ize"
      ],
      [
        "Ġlow",
        "er"
      ],
      [
        "ĠHe",
        "re"
      ],
      [
        "Ġz",
        "ones"
      ],
      [
        "Ġfunctional",
        "ity"
      ],
      [
        "Ġconc",
        "er"
      ],
      [
        "Ġpos",
        "ition"
      ],
      [
        "Ġalign",
        "ment"
      ],
      [
        "Ġerg",
        "onomic"
      ],
      [
        "Ġposs",
        "ible"
      ],
      [
        "Ġtom",
        "orrow"
      ],
      [
        "icrof",
        "iber"
      ],
      [
        "1",
        "99"
      ],
      [
        "F",
        "amily"
      ],
      [
        "O",
        "utdoor"
      ],
      [
        "b",
        "ing"
      ],
      [
        "h",
        "es"
      ],
      [
        "k",
        "ing"
      ],
      [
        "l",
        "ing"
      ],
      [
        "l",
        "se"
      ],
      [
        "m",
        "e"
      ],
      [
        "m",
        "al"
      ],
      [
        "m",
        "porary"
      ],
      [
        "p",
        "roof"
      ],
      [
        "s",
        "or"
      ],
      [
        "t",
        "ime"
      ],
      [
        "v",
        "ed"
      ],
      [
        "v",
        "iew"
      ],
      [
        "Ã",
        "Ĺ"
      ],
      [
        "Ġ",
        "J"
      ],
      [
        "Ġ",
        "ide"
      ],
      [
        "Ġ",
        "vers"
      ],
      [
        "Ġ",
        "Ø§Ù"
      ],
      [
        "Ġa",
        "ir"
      ],
      [
        "in",
        "ate"
      ],
      [
        "in",
        "ce"
      ],
      [
        "re",
        "ak"
      ],
      [
        "Ġs",
        "atisf"
      ],
      [
        "Ġs",
        "ince"
      ],
      [
        "ou",
        "ble"
      ],
      [
        "Ġc",
        "ould"
      ],
      [
        "it",
        "ies"
      ],
      [
        "Ġw",
        "a"
      ],
      [
        "Ġw",
        "icker"
      ],
      [
        "Ġm",
        "ay"
      ],
      [
        "Ġm",
        "ark"
      ],
      [
        "li",
        "ke"
      ],
      [
        "ro",
        "l"
      ],
      [
        "Ġo",
        "d"
      ],
      [
        "ab",
        "or"
      ],
      [
        "Ġwith",
        "out"
      ],
      [
        "Ġh",
        "ot"
      ],
      [
        "oo",
        "th"
      ],
      [
        "Ġse",
        "ason"
      ],
      [
        "Ġe",
        "lse"
      ],
      [
        "ĠC",
        "l"
      ],
      [
        "ĠF",
        "irst"
      ],
      [
        "ĠF",
        "lexible"
      ],
      [
        "Ġ1",
        "4"
      ],
      [
        "id",
        "d"
      ],
      [
        "Ġpro",
        "ble"
      ],
      [
        "Ġch",
        "oosing"
      ],
      [
        "pt",
        "h"
      ],
      [
        "Ġg",
        "aming"
      ],
      [
        "ud",
        "io"
      ],
      [
        "Ġhe",
        "ad"
      ],
      [
        "te",
        "mporary"
      ],
      [
        "Ġmo",
        "t"
      ],
      [
        "ĠS",
        "et"
      ],
      [
        "ĠS",
        "ound"
      ],
      [
        "Ġcom",
        "es"
      ],
      [
        "Ġde",
        "pth"
      ],
      [
        "cl",
        "us"
      ],
      [
        "ĠE",
        "ach"
      ],
      [
        "Ġan",
        "g"
      ],
      [
        "Ġfr",
        "ustr"
      ],
      [
        "Ġbe",
        "en"
      ],
      [
        "ĠD",
        "ining"
      ],
      [
        "ĠM",
        "atch"
      ],
      [
        "Ġrecommend",
        "ations"
      ],
      [
        "Ġte",
        "xture"
      ],
      [
        "per",
        "ature"
      ],
      [
        "ill",
        "s"
      ],
      [
        "Ġcomp",
        "et"
      ],
      [
        "Ġen",
        "ough"
      ],
      [
        "Ġpet",
        "s"
      ],
      [
        "Ġfoc",
        "us"
      ],
      [
        "Ġclear",
        "ance"
      ],
      [
        "Ġdraw",
        "ers"
      ],
      [
        "Ġmode",
        "l"
      ],
      [
        "Ġcomm",
        "un"
      ],
      [
        "Ġpat",
        "h"
      ],
      [
        "Ġpat",
        "ter"
      ],
      [
        "Ġevery",
        "thing"
      ],
      [
        "Ġextend",
        "ed"
      ],
      [
        "Ġcorn",
        "ers"
      ],
      [
        "Ġlayou",
        "t"
      ],
      [
        "Ġmedi",
        "a"
      ],
      [
        "Ġnav",
        "ig"
      ],
      [
        "het",
        "ic"
      ],
      [
        "Ġquick",
        "ly"
      ],
      [
        "anc",
        "ing"
      ],
      [
        "ateg",
        "ories"
      ],
      [
        "lc",
        "ome"
      ],
      [
        "urp",
        "ose"
      ],
      [
        "Ġmem",
        "ory"
      ],
      [
        "ĠComp",
        "act"
      ],
      [
        "Ġwardro",
        "be"
      ],
      [
        "Ġinvo",
        "ices"
      ],
      [
        "Ġhard",
        "w"
      ],
      [
        "Ġremov",
        "able"
      ],
      [
        "clus",
        "ive"
      ],
      [
        "1",
        "4"
      ],
      [
        "O",
        "r"
      ],
      [
        "U",
        "rban"
      ],
      [
        "a",
        "pt"
      ],
      [
        "h",
        "ip"
      ],
      [
        "m",
        "ed"
      ],
      [
        "o",
        "very"
      ],
      [
        "p",
        "ar"
      ],
      [
        "p",
        "urpose"
      ],
      [
        "s",
        "aving"
      ],
      [
        "t",
        "an"
      ],
      [
        "v",
        "ice"
      ],
      [
        "w",
        "e"
      ],
      [
        "y",
        "le"
      ],
      [
        "Ġ",
        "ess"
      ],
      [
        "Ġ",
        "vert"
      ],
      [
        "Ġs",
        "ens"
      ],
      [
        "Ġt",
        "ones"
      ],
      [
        "ou",
        "st"
      ],
      [
        "Ġf",
        "il"
      ],
      [
        "Ġf",
        "lexible"
      ],
      [
        "Ġc",
        "al"
      ],
      [
        "Ġc",
        "ap"
      ],
      [
        "at",
        "ul"
      ],
      [
        "at",
        "tan"
      ],
      [
        "ur",
        "able"
      ],
      [
        "li",
        "c"
      ],
      [
        "Ġthe",
        "re"
      ],
      [
        "Ġre",
        "al"
      ],
      [
        "Ġre",
        "li"
      ],
      [
        "Ġre",
        "view"
      ],
      [
        "ol",
        "low"
      ],
      [
        "Ġse",
        "par"
      ],
      [
        "Ġsp",
        "ills"
      ],
      [
        "Ġ1",
        "5"
      ],
      [
        "Ġl",
        "ess"
      ],
      [
        "Ġl",
        "bs"
      ],
      [
        "am",
        "ples"
      ],
      [
        "if",
        "t"
      ],
      [
        "if",
        "ul"
      ],
      [
        "if",
        "unctional"
      ],
      [
        "Ġmo",
        "isture"
      ],
      [
        "Ġde",
        "als"
      ],
      [
        "Ġr",
        "ather"
      ],
      [
        "Ġex",
        "cellent"
      ],
      [
        "ĠL",
        "e"
      ],
      [
        "ĠD",
        "urable"
      ],
      [
        "il",
        "ar"
      ],
      [
        "ĠR",
        "ep"
      ],
      [
        "Ġad",
        "just"
      ],
      [
        "âĢ",
        "Ķ"
      ],
      [
        "ish",
        "li"
      ],
      [
        "os",
        "p"
      ],
      [
        "Ġsm",
        "ooth"
      ],
      [
        "ĠCon",
        "gr"
      ],
      [
        "Ġall",
        "ow"
      ],
      [
        "Ġcomple",
        "ment"
      ],
      [
        "Ġim",
        "age"
      ],
      [
        "Ġwar",
        "m"
      ],
      [
        "ĠRe",
        "infor"
      ],
      [
        "to",
        "p"
      ],
      [
        "Ġwarrant",
        "ies"
      ],
      [
        "Ġpoli",
        "sh"
      ],
      [
        "Ġsleep",
        "er"
      ],
      [
        "Ġchar",
        "ging"
      ],
      [
        "Ġsy",
        "nt"
      ],
      [
        "Ġsell",
        "er"
      ],
      [
        "Ġbook",
        "c"
      ],
      [
        "Ġke",
        "y"
      ],
      [
        "Ġlist",
        "ings"
      ],
      [
        "Ġupholst",
        "ered"
      ],
      [
        "Ġscr",
        "atches"
      ],
      [
        "Ġsystem",
        "s"
      ],
      [
        "Ġbal",
        "ance"
      ],
      [
        "Ġdec",
        "or"
      ],
      [
        "ĠQ",
        "u"
      ],
      [
        "ĠTr",
        "aditional"
      ],
      [
        "Ġround",
        "ed"
      ],
      [
        "Ġsche",
        "dule"
      ],
      [
        "Ġshi",
        "pped"
      ],
      [
        "Ġceil",
        "ings"
      ],
      [
        "Ġbeaut",
        "iful"
      ],
      [
        "Ġwid",
        "th"
      ],
      [
        "Ġgather",
        "ings"
      ],
      [
        "Ġoccas",
        "ional"
      ],
      [
        "Ġsustain",
        "able"
      ],
      [
        "idd",
        "en"
      ],
      [
        "Or",
        "ders"
      ],
      [
        "Ġess",
        "ential"
      ],
      [
        "atul",
        "ations"
      ],
      [
        "ĠCongr",
        "atulations"
      ],
      [
        "ĠReinfor",
        "ce"
      ],
      [
        "1",
        "8"
      ],
      [
        "A",
        "ll"
      ],
      [
        "C",
        "om"
      ],
      [
        "S",
        "mart"
      ],
      [
        "c",
        "hen"
      ],
      [
        "d",
        "able"
      ],
      [
        "o",
        "le"
      ],
      [
        "p",
        "ired"
      ],
      [
        "p",
        "artment"
      ],
      [
        "s",
        "ue"
      ],
      [
        "Ù",
        "Ĭ"
      ],
      [
        "Ġ",
        "y"
      ],
      [
        "Ġ",
        "Ù"
      ],
      [
        "Ġ",
        "ver"
      ],
      [
        "in",
        "al"
      ],
      [
        "or",
        "ding"
      ],
      [
        "Ġc",
        "r"
      ],
      [
        "Ġc",
        "at"
      ],
      [
        "Ġc",
        "ent"
      ],
      [
        "Ġc",
        "ount"
      ],
      [
        "at",
        "ive"
      ],
      [
        "it",
        "s"
      ],
      [
        "it",
        "ation"
      ],
      [
        "Ġw",
        "ed"
      ],
      [
        "Ġd",
        "ai"
      ],
      [
        "Ġd",
        "ual"
      ],
      [
        "Ġm",
        "icrofiber"
      ],
      [
        "Ġb",
        "reak"
      ],
      [
        "Ġin",
        "v"
      ],
      [
        "ab",
        "sor"
      ],
      [
        "Ġh",
        "y"
      ],
      [
        "Ġst",
        "ill"
      ],
      [
        "ĠF",
        "ree"
      ],
      [
        "as",
        "ed"
      ],
      [
        "as",
        "sem"
      ],
      [
        "Ġl",
        "abor"
      ],
      [
        "id",
        "ing"
      ],
      [
        "Ġch",
        "an"
      ],
      [
        "ĠS",
        "c"
      ],
      [
        "Ġcon",
        "temporary"
      ],
      [
        "ot",
        "her"
      ],
      [
        "Ġme",
        "et"
      ],
      [
        "Ġle",
        "ft"
      ],
      [
        "ĠP",
        "rior"
      ],
      [
        "Ġdeli",
        "ver"
      ],
      [
        "us",
        "ion"
      ],
      [
        "ĠM",
        "od"
      ],
      [
        "oor",
        "d"
      ],
      [
        "Ġsty",
        "lish"
      ],
      [
        "Ġco",
        "ast"
      ],
      [
        "ress",
        "ure"
      ],
      [
        "os",
        "s"
      ],
      [
        "Ġset",
        "tings"
      ],
      [
        "for",
        "dable"
      ],
      [
        "ĠB",
        "oth"
      ],
      [
        "av",
        "or"
      ],
      [
        "ĠG",
        "o"
      ],
      [
        "Ġim",
        "port"
      ],
      [
        "sh",
        "ap"
      ],
      [
        "Ġlong",
        "er"
      ],
      [
        "Ġmult",
        "ifunctional"
      ],
      [
        "Ġcons",
        "ole"
      ],
      [
        "ĠWh",
        "ile"
      ],
      [
        "Ġaf",
        "fordable"
      ],
      [
        "Ġcomm",
        "on"
      ],
      [
        "Ġass",
        "ess"
      ],
      [
        "Ġent",
        "ertain"
      ],
      [
        "Ġac",
        "cept"
      ],
      [
        "Ġview",
        "ing"
      ],
      [
        "Ġbal",
        "con"
      ],
      [
        "ten",
        "ance"
      ],
      [
        "Ġsim",
        "ilar"
      ],
      [
        "Ġnav",
        "y"
      ],
      [
        "ĠOr",
        "der"
      ],
      [
        "Ġinterest",
        "ed"
      ],
      [
        "Ġwindow",
        "s"
      ],
      [
        "Ġassist",
        "ance"
      ],
      [
        "Ġlo",
        "yal"
      ],
      [
        "Ġkid",
        "s"
      ],
      [
        "ins",
        "pired"
      ],
      [
        "Ġtem",
        "perature"
      ],
      [
        "Ġmed",
        "itation"
      ],
      [
        "Ġdep",
        "end"
      ],
      [
        "ux",
        "ury"
      ],
      [
        "pec",
        "ial"
      ],
      [
        "Ġj",
        "o"
      ],
      [
        "ĠJ",
        "ust"
      ],
      [
        "Ġide",
        "al"
      ],
      [
        "Ġsince",
        "rely"
      ],
      [
        "Ġhead",
        "board"
      ],
      [
        "Ġvert",
        "ical"
      ],
      [
        "oust",
        "ic"
      ],
      [
        "Ġcap",
        "ac"
      ],
      [
        "Ġdai",
        "ly"
      ],
      [
        "absor",
        "bing"
      ],
      [
        "Ġimport",
        "ant"
      ],
      [
        "a",
        "u"
      ],
      [
        "a",
        "fe"
      ],
      [
        "i",
        "pe"
      ],
      [
        "n",
        "ut"
      ],
      [
        "n",
        "ers"
      ],
      [
        "u",
        "te"
      ],
      [
        "u",
        "um"
      ],
      [
        "v",
        "et"
      ],
      [
        "w",
        "ord"
      ],
      [
        "y",
        "m"
      ],
      [
        "Ġ",
        "es"
      ],
      [
        "Ġa",
        "ut"
      ],
      [
        "Ġs",
        "ound"
      ],
      [
        "Ġs",
        "amples"
      ],
      [
        "Ġt",
        "er"
      ],
      [
        "Ġf",
        "un"
      ],
      [
        "Ġf",
        "ading"
      ],
      [
        "Ġf",
        "lex"
      ],
      [
        "Ġf",
        "oot"
      ],
      [
        "Ġc",
        "ra"
      ],
      [
        "Ġc",
        "amera"
      ],
      [
        "Ġc",
        "oord"
      ],
      [
        "at",
        "h"
      ],
      [
        "at",
        "ile"
      ],
      [
        "le",
        "nd"
      ],
      [
        "Ġw",
        "r"
      ],
      [
        "Ġp",
        "ort"
      ],
      [
        "Ġp",
        "ass"
      ],
      [
        "Ġp",
        "ick"
      ],
      [
        "he",
        "m"
      ],
      [
        "Ġm",
        "ir"
      ],
      [
        "Ġb",
        "ase"
      ],
      [
        "Ġfor",
        "mal"
      ],
      [
        "Ġin",
        "c"
      ],
      [
        "Ġin",
        "d"
      ],
      [
        "ac",
        "he"
      ],
      [
        "ac",
        "uum"
      ],
      [
        "Ġh",
        "ost"
      ],
      [
        "Ġh",
        "idden"
      ],
      [
        "se",
        "ater"
      ],
      [
        "ve",
        "red"
      ],
      [
        "ĠA",
        "nd"
      ],
      [
        "ĠA",
        "partment"
      ],
      [
        "im",
        "ate"
      ],
      [
        "Ġdo",
        "es"
      ],
      [
        "est",
        "ions"
      ],
      [
        "Ġon",
        "line"
      ],
      [
        "Ġit",
        "s"
      ],
      [
        "Ġr",
        "attan"
      ],
      [
        "Ġfe",
        "et"
      ],
      [
        "Ġle",
        "ts"
      ],
      [
        "ĠP",
        "os"
      ],
      [
        "ack",
        "et"
      ],
      [
        "Ġsh",
        "ar"
      ],
      [
        "ĠD",
        "ry"
      ],
      [
        "Ġrec",
        "overy"
      ],
      [
        "ĠU",
        "V"
      ],
      [
        "ĠU",
        "rban"
      ],
      [
        "ĠM",
        "ain"
      ],
      [
        "Ġfin",
        "ancing"
      ],
      [
        "ter",
        "m"
      ],
      [
        "Ġper",
        "formance"
      ],
      [
        "ens",
        "ation"
      ],
      [
        "act",
        "er"
      ],
      [
        "Ġwh",
        "ite"
      ],
      [
        "Ġsupport",
        "ive"
      ],
      [
        "Ġset",
        "ting"
      ],
      [
        "Ġqu",
        "estions"
      ],
      [
        "Ġus",
        "ing"
      ],
      [
        "ĠCon",
        "vertible"
      ],
      [
        "pe",
        "ct"
      ],
      [
        "av",
        "y"
      ],
      [
        "ĠG",
        "ood"
      ],
      [
        "Ġres",
        "ol"
      ],
      [
        "Ġsleep",
        "ing"
      ],
      [
        "Ġchar",
        "acter"
      ],
      [
        "Ġcons",
        "ist"
      ],
      [
        "Ġbr",
        "acket"
      ],
      [
        "ĠEx",
        "p"
      ],
      [
        "Ġent",
        "ry"
      ],
      [
        "Ġprior",
        "itize"
      ],
      [
        "ĠComfort",
        "able"
      ],
      [
        "Ġbas",
        "ed"
      ],
      [
        "Ġprom",
        "ot"
      ],
      [
        "Ġsit",
        "ting"
      ],
      [
        "Ġcomb",
        "in"
      ],
      [
        "Ġval",
        "ue"
      ],
      [
        "Ġconsult",
        "ation"
      ],
      [
        "Ġconfirm",
        "ation"
      ],
      [
        "Ġrel",
        "ax"
      ],
      [
        "hes",
        "ive"
      ],
      [
        "Ġwa",
        "iting"
      ],
      [
        "Ġproble",
        "m"
      ],
      [
        "Ġnavig",
        "ation"
      ],
      [
        "Ġreli",
        "ef"
      ],
      [
        "Ġsynt",
        "hetic"
      ],
      [
        "Ġbookc",
        "ases"
      ],
      [
        "Ġoccasional",
        "ly"
      ],
      [
        "shap",
        "ed"
      ],
      [
        "Ġflex",
        "ibility"
      ],
      [
        "Ġpick",
        "up"
      ],
      [
        "2",
        "00"
      ],
      [
        "3",
        "0"
      ],
      [
        "4",
        "5"
      ],
      [
        "6",
        "7"
      ],
      [
        "H",
        "e"
      ],
      [
        "b",
        "y"
      ],
      [
        "b",
        "ody"
      ],
      [
        "c",
        "ed"
      ],
      [
        "e",
        "l"
      ],
      [
        "g",
        "ot"
      ],
      [
        "g",
        "ine"
      ],
      [
        "i",
        "od"
      ],
      [
        "m",
        "mer"
      ],
      [
        "n",
        "ing"
      ],
      [
        "o",
        "te"
      ],
      [
        "Ø",
        "©"
      ],
      [
        "Ġ",
        "Ø"
      ],
      [
        "Ġ",
        "very"
      ],
      [
        "Ġ",
        "ÃĹ"
      ],
      [
        "Ġa",
        "m"
      ],
      [
        "Ġt",
        "ight"
      ],
      [
        "ou",
        "b"
      ],
      [
        "ou",
        "n"
      ],
      [
        "Ġc",
        "able"
      ],
      [
        "Ġc",
        "ard"
      ],
      [
        "at",
        "est"
      ],
      [
        "on",
        "t"
      ],
      [
        "Ġp",
        "ane"
      ],
      [
        "ur",
        "ing"
      ],
      [
        "Ġm",
        "ix"
      ],
      [
        "al",
        "le"
      ],
      [
        "al",
        "og"
      ],
      [
        "Ġb",
        "en"
      ],
      [
        "Ġb",
        "ec"
      ],
[...]
